3BA3D70A
3CCCCCCD
3D3851EB
3D851EB8
3DAE147B
3DD70A3D
3E000000
3E147AE1
3E28F5C3
3E3D70A4
3E51EB85
3E666666
3E7AE148
3E87AE14
3E91EB85
3E9C28F6
3EA66666
3EB0A3D7
3EBAE148
3EC51EB8
3ECF5C29
3ED9999A
3EE3D70A
3EEE147B
3EF851EC
3F0147AE
3F066666
3F0B851F
3F10A3D7
3F15C28F
3F1AE148
3F200000
3F251EB8
3F2A3D71
3F2F5C29
3F347AE1
3F39999A
3F3EB852
3F43D70A
3F48F5C3
3F4E147B
3F533333
3F5851EC
3F5D70A4
3F628F5C
3F67AE14
3F6CCCCD
3F71EB85
3F770A3D
3F7C28F6
3F80A3D7
3F833333
3F85C28F
3F8851EC
3F8AE148
3F8D70A4
3F900000
3F928F5C
3F951EB8
3F97AE14
3F9A3D71
3F9CCCCD
3F9F5C29
3FA1EB85
3FA47AE1
3FA70A3D
3FA9999A
3FAC28F6
3FAEB852
3FB147AE
3FB3D70A
3FB66666
3FB8F5C3
3FBB851F
3FBE147B
3FC0A3D7
3FC33333
3FC5C28F
3FC851EC
3FCAE148
3FCD70A4
3FD00000
3FD28F5C
3FD51EB8
3FD7AE14
3FDA3D71
3FDCCCCD
3FDF5C29
3FE1EB85
3FE47AE1
3FE70A3D
3FE9999A
3FEC28F6
3FEEB852
3FF147AE
3FF3D70A
3FF66666
3FF8F5C3
3FFB851F
3FFE147B
400051EC
4001999A
4002E148
400428F6
400570A4
4006B852
40080000
400947AE
400A8F5C
400BD70A
400D1EB8
400E6666
400FAE14
4010F5C3
40123D71
4013851F
4014CCCD
4016147B
40175C29
4018A3D7
4019EB85
401B3333
401C7AE1
401DC28F
401F0A3D
402051EC
4021999A
4022E148
402428F6
402570A4
4026B852
40280000
402947AE
402A8F5C
402BD70A
402D1EB8
402E6666
402FAE14
4030F5C3
40323D71
4033851F
4034CCCD
4036147B
40375C29
4038A3D7
4039EB85
403B3333
403C7AE1
403DC28F
403F0A3D
404051EC
4041999A
4042E148
404428F6
404570A4
4046B852
40480000
404947AE
404A8F5C
404BD70A
404D1EB8
404E6666
404FAE14
4050F5C3
40523D71
4053851F
4054CCCD
4056147B
40575C29
4058A3D7
4059EB85
405B3333
405C7AE1
405DC28F
405F0A3D
406051EC
4061999A
4062E148
406428F6
406570A4
4066B852
40680000
406947AE
406A8F5C
406BD70A
406D1EB8
406E6666
406FAE14
4070F5C3
40723D71
4073851F
4074CCCD
4076147B
40775C29
4078A3D7
4079EB85
407B3333
407C7AE1
407DC28F
407F0A3D
408028F6
4080CCCD
408170A4
4082147B
4082B852
40835C29
40840000
4084A3D7
408547AE
4085EB85
40868F5C
40873333
4087D70A
40887AE1
40891EB8
4089C28F
408A6666
408B0A3D
408BAE14
408C51EC
408CF5C3
408D999A
408E3D71
408EE148
408F851F
409028F6
4090CCCD
409170A4
4092147B
4092B852
40935C29
40940000
4094A3D7
409547AE
4095EB85
40968F5C
40973333
4097D70A
40987AE1
40991EB8
4099C28F
409A6666
409B0A3D
409BAE14
409C51EC
409CF5C3
409D999A
409E3D71
409EE148
409F851F
40A028F6
40A0CCCD
40A170A4
40A2147B
40A2B852
40A35C29
40A40000
40A4A3D7
40A547AE
40A5EB85
40A68F5C
40A73333
40A7D70A
40A87AE1
40A91EB8
40A9C28F
40AA6666
40AB0A3D
40ABAE14
40AC51EC
40ACF5C3
40AD999A
40AE3D71
40AEE148
40AF851F
40B028F6
40B0CCCD
40B170A4
40B2147B
40B2B852
40B35C29
40B40000
40B4A3D7
40B547AE
40B5EB85
40B68F5C
40B73333
40B7D70A
40B87AE1
40B91EB8
40B9C28F
40BA6666
40BB0A3D
40BBAE14
40BC51EC
40BCF5C3
40BD999A
40BE3D71
40BEE148
40BF851F
40C028F6
40C0CCCD
40C170A4
40C2147B
40C2B852
40C35C29
40C40000
40C4A3D7
40C547AE
40C5EB85
40C68F5C
40C73333
40C7D70A
40C87AE1
40C91EB8
40C9C28F
40CA6666
40CB0A3D
40CBAE14
40CC51EC
40CCF5C3
40CD999A
40CE3D71
40CEE148
40CF851F
40D028F6
40D0CCCD
40D170A4
40D2147B
40D2B852
40D35C29
40D40000
40D4A3D7
40D547AE
40D5EB85
40D68F5C
40D73333
40D7D70A
40D87AE1
40D91EB8
40D9C28F
40DA6666
40DB0A3D
40DBAE14
40DC51EC
40DCF5C3
40DD999A
40DE3D71
40DEE148
40DF851F
40E028F6
40E0CCCD
40E170A4
40E2147B
40E2B852
40E35C29
40E40000
40E4A3D7
40E547AE
40E5EB85
40E68F5C
40E73333
40E7D70A
40E87AE1
40E91EB8
40E9C28F
40EA6666
40EB0A3D
40EBAE14
40EC51EC
40ECF5C3
40ED999A
40EE3D71
40EEE148
40EF851F
40F028F6
40F0CCCD
40F170A4
40F2147B
40F2B852
40F35C29
40F40000
40F4A3D7
40F547AE
40F5EB85
40F68F5C
40F73333
40F7D70A
40F87AE1
40F91EB8
40F9C28F
40FA6666
40FB0A3D
40FBAE14
40FC51EC
40FCF5C3
40FD999A
40FE3D71
40FEE148
40FF851F
4100147B
41006666
4100B852
41010A3D
41015C29
4101AE14
41020000
410251EC
4102A3D7
4102F5C3
410347AE
4103999A
4103EB85
41043D71
41048F5C
4104E148
41053333
4105851F
4105D70A
410628F6
41067AE1
4106CCCD
41071EB8
410770A4
4107C28F
4108147B
41086666
4108B852
41090A3D
41095C29
4109AE14
410A0000
410A51EC
410AA3D7
410AF5C3
410B47AE
410B999A
410BEB85
410C3D71
410C8F5C
410CE148
410D3333
410D851F
410DD70A
410E28F6
410E7AE1
410ECCCD
410F1EB8
410F70A4
410FC28F
4110147B
41106666
4110B852
41110A3D
41115C29
4111AE14
41120000
411251EC
4112A3D7
4112F5C3
411347AE
4113999A
4113EB85
41143D71
41148F5C
4114E148
41153333
4115851F
4115D70A
411628F6
41167AE1
4116CCCD
41171EB8
411770A4
4117C28F
4118147B
41186666
4118B852
41190A3D
41195C29
4119AE14
411A0000
411A51EC
411AA3D7
411AF5C3
411B47AE
411B999A
411BEB85
411C3D71
411C8F5C
411CE148
411D3333
411D851F
411DD70A
411E28F6
411E7AE1
411ECCCD
411F1EB8
411F70A4
411FC28F
4120147B
41206666
4120B852
41210A3D
41215C29
4121AE14
41220000
412251EC
4122A3D7
4122F5C3
412347AE
4123999A
4123EB85
41243D71
41248F5C
4124E148
41253333
4125851F
4125D70A
412628F6
41267AE1
4126CCCD
41271EB8
412770A4
4127C28F
4128147B
41286666
4128B852
41290A3D
41295C29
4129AE14
412A0000
412A51EC
412AA3D7
412AF5C3
412B47AE
412B999A
412BEB85
412C3D71
412C8F5C
412CE148
412D3333
412D851F
412DD70A
412E28F6
412E7AE1
412ECCCD
412F1EB8
412F70A4
412FC28F
4130147B
41306666
4130B852
41310A3D
41315C29
4131AE14
41320000
413251EC
4132A3D7
4132F5C3
413347AE
4133999A
4133EB85
41343D71
41348F5C
4134E148
41353333
4135851F
4135D70A
413628F6
41367AE1
4136CCCD
41371EB8
413770A4
4137C28F
4138147B
41386666
4138B852
41390A3D
41395C29
4139AE14
413A0000
413A51EC
413AA3D7
413AF5C3
413B47AE
413B999A
413BEB85
413C3D71
413C8F5C
413CE148
413D3333
413D851F
413DD70A
413E28F6
413E7AE1
413ECCCD
413F1EB8
413F70A4
413FC28F
4140147B
41406666
4140B852
41410A3D
41415C29
4141AE14
41420000
414251EC
4142A3D7
4142F5C3
414347AE
4143999A
4143EB85
41443D71
41448F5C
4144E148
41453333
4145851F
4145D70A
414628F6
41467AE1
4146CCCD
41471EB8
414770A4
4147C28F
4148147B
41486666
4148B852
41490A3D
41495C29
4149AE14
414A0000
414A51EC
414AA3D7
414AF5C3
414B47AE
414B999A
414BEB85
414C3D71
414C8F5C
414CE148
414D3333
414D851F
414DD70A
414E28F6
414E7AE1
414ECCCD
414F1EB8
414F70A4
414FC28F
4150147B
41506666
4150B852
41510A3D
41515C29
4151AE14
41520000
415251EC
4152A3D7
4152F5C3
415347AE
4153999A
4153EB85
41543D71
41548F5C
4154E148
41553333
4155851F
4155D70A
415628F6
41567AE1
4156CCCD
41571EB8
415770A4
4157C28F
4158147B
41586666
4158B852
41590A3D
41595C29
4159AE14
415A0000
415A51EC
415AA3D7
415AF5C3
415B47AE
415B999A
415BEB85
415C3D71
415C8F5C
415CE148
415D3333
415D851F
415DD70A
415E28F6
415E7AE1
415ECCCD
415F1EB8
415F70A4
415FC28F
4160147B
41606666
4160B852
41610A3D
41615C29
4161AE14
41620000
416251EC
4162A3D7
4162F5C3
416347AE
4163999A
4163EB85
41643D71
41648F5C
4164E148
41653333
4165851F
4165D70A
416628F6
41667AE1
4166CCCD
41671EB8
416770A4
4167C28F
4168147B
41686666
4168B852
41690A3D
41695C29
4169AE14
416A0000
416A51EC
416AA3D7
416AF5C3
416B47AE
416B999A
416BEB85
416C3D71
416C8F5C
416CE148
416D3333
416D851F
416DD70A
416E28F6
416E7AE1
416ECCCD
416F1EB8
416F70A4
416FC28F
4170147B
41706666
4170B852
41710A3D
41715C29
4171AE14
41720000
417251EC
4172A3D7
4172F5C3
417347AE
4173999A
4173EB85
41743D71
41748F5C
4174E148
41753333
4175851F
4175D70A
417628F6
41767AE1
4176CCCD
41771EB8
417770A4
4177C28F
4178147B
41786666
4178B852
41790A3D
41795C29
4179AE14
417A0000
417A51EC
417AA3D7
417AF5C3
417B47AE
417B999A
417BEB85
417C3D71
417C8F5C
417CE148
417D3333
417D851F
417DD70A
417E28F6
417E7AE1
417ECCCD
417F1EB8
417F70A4
417FC28F
41800A3D
41803333
41805C29
4180851F
4180AE14
4180D70A
41810000
418128F6
418151EC
41817AE1
4181A3D7
4181CCCD
4181F5C3
41821EB8
418247AE
418270A4
4182999A
4182C28F
4182EB85
4183147B
41833D71
41836666
41838F5C
4183B852
4183E148
41840A3D
41843333
41845C29
4184851F
4184AE14
4184D70A
41850000
418528F6
418551EC
41857AE1
4185A3D7
4185CCCD
4185F5C3
41861EB8
418647AE
418670A4
4186999A
4186C28F
4186EB85
4187147B
41873D71
41876666
41878F5C
4187B852
4187E148
41880A3D
41883333
41885C29
4188851F
4188AE14
4188D70A
41890000
418928F6
418951EC
41897AE1
4189A3D7
4189CCCD
4189F5C3
418A1EB8
418A47AE
418A70A4
418A999A
418AC28F
418AEB85
418B147B
418B3D71
418B6666
418B8F5C
418BB852
418BE148
418C0A3D
418C3333
418C5C29
418C851F
418CAE14
418CD70A
418D0000
418D28F6
418D51EC
418D7AE1
418DA3D7
418DCCCD
418DF5C3
418E1EB8
418E47AE
418E70A4
418E999A
418EC28F
418EEB85
418F147B
418F3D71
418F6666
418F8F5C
418FB852
418FE148
41900A3D
41903333
41905C29
4190851F
4190AE14
4190D70A
41910000
419128F6
419151EC
41917AE1
4191A3D7
4191CCCD
4191F5C3
41921EB8
419247AE
419270A4
4192999A
4192C28F
4192EB85
4193147B
41933D71
41936666
41938F5C
4193B852
4193E148
41940A3D
41943333
41945C29
4194851F
4194AE14
4194D70A
41950000
419528F6
419551EC
41957AE1
4195A3D7
4195CCCD
4195F5C3
41961EB8
419647AE
419670A4
4196999A
4196C28F
4196EB85
4197147B
41973D71
41976666
41978F5C
4197B852
4197E148
41980A3D
41983333
41985C29
4198851F
4198AE14
4198D70A
41990000
419928F6
419951EC
41997AE1
4199A3D7
4199CCCD
4199F5C3
419A1EB8
419A47AE
419A70A4
419A999A
419AC28F
419AEB85
419B147B
419B3D71
419B6666
419B8F5C
419BB852
419BE148
419C0A3D
419C3333
419C5C29
419C851F
419CAE14
419CD70A
419D0000
419D28F6
419D51EC
419D7AE1
419DA3D7
419DCCCD
419DF5C3
419E1EB8
419E47AE
419E70A4
419E999A
419EC28F
419EEB85
419F147B
419F3D71
419F6666
419F8F5C
419FB852
419FE148
41A00A3D
41A03333
41A05C29
41A0851F
41A0AE14
41A0D70A
41A10000
41A128F6
41A151EC
41A17AE1
41A1A3D7
41A1CCCD
41A1F5C3
41A21EB8
41A247AE
41A270A4
41A2999A
41A2C28F
41A2EB85
41A3147B
41A33D71
41A36666
41A38F5C
41A3B852
41A3E148
41A40A3D
41A43333
41A45C29
41A4851F
41A4AE14
41A4D70A
41A50000
41A528F6
41A551EC
41A57AE1
41A5A3D7
41A5CCCD
41A5F5C3
41A61EB8
41A647AE
41A670A4
41A6999A
41A6C28F
41A6EB85
41A7147B
41A73D71
41A76666
41A78F5C
41A7B852
41A7E148
41A80A3D
41A83333
41A85C29
41A8851F
41A8AE14
41A8D70A
41A90000
41A928F6
41A951EC
41A97AE1
41A9A3D7
41A9CCCD
41A9F5C3
41AA1EB8
41AA47AE
41AA70A4
41AA999A
41AAC28F
41AAEB85
41AB147B
41AB3D71
41AB6666
41AB8F5C
41ABB852
41ABE148
41AC0A3D
41AC3333
41AC5C29
41AC851F
41ACAE14
41ACD70A
41AD0000
41AD28F6
41AD51EC
41AD7AE1
41ADA3D7
41ADCCCD
41ADF5C3
41AE1EB8
41AE47AE
41AE70A4
41AE999A
41AEC28F
41AEEB85
41AF147B
41AF3D71
41AF6666
41AF8F5C
41AFB852
41AFE148
41B00A3D
41B03333
41B05C29
41B0851F
41B0AE14
41B0D70A
41B10000
41B128F6
41B151EC
41B17AE1
41B1A3D7
41B1CCCD
41B1F5C3
41B21EB8
41B247AE
41B270A4
41B2999A
41B2C28F
41B2EB85
41B3147B
41B33D71
41B36666
41B38F5C
41B3B852
41B3E148
41B40A3D
41B43333
41B45C29
41B4851F
41B4AE14
41B4D70A
41B50000
41B528F6
41B551EC
41B57AE1
41B5A3D7
41B5CCCD
41B5F5C3
41B61EB8
41B647AE
41B670A4
41B6999A
41B6C28F
41B6EB85
41B7147B
41B73D71
41B76666
41B78F5C
41B7B852
41B7E148
41B80A3D
41B83333
41B85C29
41B8851F
41B8AE14
41B8D70A
41B90000
41B928F6
41B951EC
41B97AE1
41B9A3D7
41B9CCCD
41B9F5C3
41BA1EB8
41BA47AE
41BA70A4
41BA999A
41BAC28F
41BAEB85
41BB147B
41BB3D71
41BB6666
41BB8F5C
41BBB852
41BBE148
41BC0A3D
41BC3333
41BC5C29
41BC851F
41BCAE14
41BCD70A
41BD0000
41BD28F6
41BD51EC
41BD7AE1
41BDA3D7
41BDCCCD
41BDF5C3
41BE1EB8
41BE47AE
41BE70A4
41BE999A
41BEC28F
41BEEB85
41BF147B
41BF3D71
41BF6666
41BF8F5C
41BFB852
41BFE148
41C00A3D
41C03333
41C05C29
41C0851F
41C0AE14
41C0D70A
41C10000
41C128F6
41C151EC
41C17AE1
41C1A3D7
41C1CCCD
41C1F5C3
41C21EB8
41C247AE
41C270A4
41C2999A
41C2C28F
41C2EB85
41C3147B
41C33D71
41C36666
41C38F5C
41C3B852
41C3E148
41C40A3D
41C43333
41C45C29
41C4851F
41C4AE14
41C4D70A
41C50000
41C528F6
41C551EC
41C57AE1
41C5A3D7
41C5CCCD
41C5F5C3
41C61EB8
41C647AE
41C670A4
41C6999A
41C6C28F
41C6EB85
41C7147B
41C73D71
41C76666
41C78F5C
41C7B852
41C7E148
41C80A3D
41C83333
41C85C29
41C8851F
41C8AE14
41C8D70A
41C90000
41C928F6
41C951EC
41C97AE1
41C9A3D7
41C9CCCD
41C9F5C3
41CA1EB8
41CA47AE
41CA70A4
41CA999A
41CAC28F
41CAEB85
41CB147B
41CB3D71
41CB6666
41CB8F5C
41CBB852
41CBE148
41CC0A3D
41CC3333
41CC5C29
41CC851F
41CCAE14
41CCD70A
41CD0000
41CD28F6
41CD51EC
41CD7AE1
41CDA3D7
41CDCCCD
41CDF5C3
41CE1EB8
41CE47AE
41CE70A4
41CE999A
41CEC28F
41CEEB85
41CF147B
41CF3D71
41CF6666
41CF8F5C
41CFB852
41CFE148
41D00A3D
41D03333
41D05C29
41D0851F
41D0AE14
41D0D70A
41D10000
41D128F6
41D151EC
41D17AE1
41D1A3D7
41D1CCCD
41D1F5C3
41D21EB8
41D247AE
41D270A4
41D2999A
41D2C28F
41D2EB85
41D3147B
41D33D71
41D36666
41D38F5C
41D3B852
41D3E148
41D40A3D
41D43333
41D45C29
41D4851F
41D4AE14
41D4D70A
41D50000
41D528F6
41D551EC
41D57AE1
41D5A3D7
41D5CCCD
41D5F5C3
41D61EB8
41D647AE
41D670A4
41D6999A
41D6C28F
41D6EB85
41D7147B
41D73D71
41D76666
41D78F5C
41D7B852
41D7E148
41D80A3D
41D83333
41D85C29
41D8851F
41D8AE14
41D8D70A
41D90000
41D928F6
41D951EC
41D97AE1
41D9A3D7
41D9CCCD
41D9F5C3
41DA1EB8
41DA47AE
41DA70A4
41DA999A
41DAC28F
41DAEB85
41DB147B
41DB3D71
41DB6666
41DB8F5C
41DBB852
41DBE148
41DC0A3D
41DC3333
41DC5C29
41DC851F
41DCAE14
41DCD70A
41DD0000
41DD28F6
41DD51EC
41DD7AE1
41DDA3D7
41DDCCCD
41DDF5C3
41DE1EB8
41DE47AE
41DE70A4
41DE999A
41DEC28F
41DEEB85
41DF147B
41DF3D71
41DF6666
41DF8F5C
41DFB852
41DFE148
41E00A3D
41E03333
41E05C29
41E0851F
41E0AE14
41E0D70A
41E10000
41E128F6
41E151EC
41E17AE1
41E1A3D7
41E1CCCD
41E1F5C3
41E21EB8
41E247AE
41E270A4
41E2999A
41E2C28F
41E2EB85
41E3147B
41E33D71
41E36666
41E38F5C
41E3B852
41E3E148
41E40A3D
41E43333
41E45C29
41E4851F
41E4AE14
41E4D70A
41E50000
41E528F6
41E551EC
41E57AE1
41E5A3D7
41E5CCCD
41E5F5C3
41E61EB8
41E647AE
41E670A4
41E6999A
41E6C28F
41E6EB85
41E7147B
41E73D71
41E76666
41E78F5C
41E7B852
41E7E148
41E80A3D
41E83333
41E85C29
41E8851F
41E8AE14
41E8D70A
41E90000
41E928F6
41E951EC
41E97AE1
41E9A3D7
41E9CCCD
41E9F5C3
41EA1EB8
41EA47AE
41EA70A4
41EA999A
41EAC28F
41EAEB85
41EB147B
41EB3D71
41EB6666
41EB8F5C
41EBB852
41EBE148
41EC0A3D
41EC3333
41EC5C29
41EC851F
41ECAE14
41ECD70A
41ED0000
41ED28F6
41ED51EC
41ED7AE1
41EDA3D7
41EDCCCD
41EDF5C3
41EE1EB8
41EE47AE
41EE70A4
41EE999A
41EEC28F
41EEEB85
41EF147B
41EF3D71
41EF6666
41EF8F5C
41EFB852
41EFE148
41F00A3D
41F03333
41F05C29
41F0851F
41F0AE14
41F0D70A
41F10000
41F128F6
41F151EC
41F17AE1
41F1A3D7
41F1CCCD
41F1F5C3
41F21EB8
41F247AE
41F270A4
41F2999A
41F2C28F
41F2EB85
41F3147B
41F33D71
41F36666
41F38F5C
41F3B852
41F3E148
41F40A3D
41F43333
41F45C29
41F4851F
41F4AE14
41F4D70A
41F50000
41F528F6
41F551EC
41F57AE1
41F5A3D7
41F5CCCD
41F5F5C3
41F61EB8
41F647AE
41F670A4
41F6999A
41F6C28F
41F6EB85
41F7147B
41F73D71
41F76666
41F78F5C
41F7B852
41F7E148
41F80A3D
41F83333
41F85C29
41F8851F
41F8AE14
41F8D70A
41F90000
41F928F6
41F951EC
41F97AE1
41F9A3D7
41F9CCCD
41F9F5C3
41FA1EB8
41FA47AE
41FA70A4
41FA999A
41FAC28F
41FAEB85
41FB147B
41FB3D71
41FB6666
41FB8F5C
41FBB852
41FBE148
41FC0A3D
41FC3333
41FC5C29
41FC851F
41FCAE14
41FCD70A
41FD0000
41FD28F6
41FD51EC
41FD7AE1
41FDA3D7
41FDCCCD
41FDF5C3
41FE1EB8
41FE47AE
41FE70A4
41FE999A
41FEC28F
41FEEB85
41FF147B
41FF3D71
41FF6666
41FF8F5C
41FFB852
41FFE148
4200051F
4200199A
42002E14
4200428F
4200570A
42006B85
42008000
4200947B
4200A8F6
4200BD71
4200D1EC
4200E666
4200FAE1
42010F5C
420123D7
42013852
42014CCD
42016148
420175C3
42018A3D
42019EB8
4201B333
4201C7AE
4201DC29
4201F0A4
4202051F
4202199A
42022E14
4202428F
4202570A
42026B85
42028000
4202947B
4202A8F6
4202BD71
4202D1EC
4202E666
4202FAE1
42030F5C
420323D7
42033852
42034CCD
42036148
420375C3
42038A3D
42039EB8
4203B333
4203C7AE
4203DC29
4203F0A4
4204051F
4204199A
42042E14
4204428F
4204570A
42046B85
42048000
4204947B
4204A8F6
4204BD71
4204D1EC
4204E666
4204FAE1
42050F5C
420523D7
42053852
42054CCD
42056148
420575C3
42058A3D
42059EB8
4205B333
4205C7AE
4205DC29
4205F0A4
4206051F
4206199A
42062E14
4206428F
4206570A
42066B85
42068000
4206947B
4206A8F6
4206BD71
4206D1EC
4206E666
4206FAE1
42070F5C
420723D7
42073852
42074CCD
42076148
420775C3
42078A3D
42079EB8
4207B333
4207C7AE
4207DC29
4207F0A4
4208051F
4208199A
42082E14
4208428F
4208570A
42086B85
42088000
4208947B
4208A8F6
4208BD71
4208D1EC
4208E666
4208FAE1
42090F5C
420923D7
42093852
42094CCD
42096148
420975C3
42098A3D
42099EB8
4209B333
4209C7AE
4209DC29
4209F0A4
420A051F
420A199A
420A2E14
420A428F
420A570A
420A6B85
420A8000
420A947B
420AA8F6
420ABD71
420AD1EC
420AE666
420AFAE1
420B0F5C
420B23D7
420B3852
420B4CCD
420B6148
420B75C3
420B8A3D
420B9EB8
420BB333
420BC7AE
420BDC29
420BF0A4
420C051F
420C199A
420C2E14
420C428F
420C570A
420C6B85
420C8000
420C947B
420CA8F6
420CBD71
420CD1EC
420CE666
420CFAE1
420D0F5C
420D23D7
420D3852
420D4CCD
420D6148
420D75C3
420D8A3D
420D9EB8
420DB333
420DC7AE
420DDC29
420DF0A4
420E051F
420E199A
420E2E14
420E428F
420E570A
420E6B85
420E8000
420E947B
420EA8F6
420EBD71
420ED1EC
420EE666
420EFAE1
420F0F5C
420F23D7
420F3852
420F4CCD
420F6148
420F75C3
420F8A3D
420F9EB8
420FB333
420FC7AE
420FDC29
420FF0A4
4210051F
4210199A
42102E14
4210428F
4210570A
42106B85
42108000
4210947B
4210A8F6
4210BD71
4210D1EC
4210E666
4210FAE1
42110F5C
421123D7
42113852
42114CCD
42116148
421175C3
42118A3D
42119EB8
4211B333
4211C7AE
4211DC29
4211F0A4
4212051F
4212199A
42122E14
4212428F
4212570A
42126B85
42128000
4212947B
4212A8F6
4212BD71
4212D1EC
4212E666
4212FAE1
42130F5C
421323D7
42133852
42134CCD
42136148
421375C3
42138A3D
42139EB8
4213B333
4213C7AE
4213DC29
4213F0A4
4214051F
4214199A
42142E14
4214428F
4214570A
42146B85
42148000
4214947B
4214A8F6
4214BD71
4214D1EC
4214E666
4214FAE1
42150F5C
421523D7
42153852
42154CCD
42156148
421575C3
42158A3D
42159EB8
4215B333
4215C7AE
4215DC29
4215F0A4
4216051F
4216199A
42162E14
4216428F
4216570A
42166B85
42168000
4216947B
4216A8F6
4216BD71
4216D1EC
4216E666
4216FAE1
42170F5C
421723D7
42173852
42174CCD
42176148
421775C3
42178A3D
42179EB8
4217B333
4217C7AE
4217DC29
4217F0A4
4218051F
4218199A
42182E14
4218428F
4218570A
42186B85
42188000
4218947B
4218A8F6
4218BD71
4218D1EC
4218E666
4218FAE1
42190F5C
421923D7
42193852
42194CCD
42196148
421975C3
42198A3D
42199EB8
4219B333
4219C7AE
4219DC29
4219F0A4
421A051F
421A199A
421A2E14
421A428F
421A570A
421A6B85
421A8000
421A947B
421AA8F6
421ABD71
421AD1EC
421AE666
421AFAE1
421B0F5C
421B23D7
421B3852
421B4CCD
421B6148
421B75C3
421B8A3D
421B9EB8
421BB333
421BC7AE
421BDC29
421BF0A4
421C051F
421C199A
421C2E14
421C428F
421C570A
421C6B85
421C8000
421C947B
421CA8F6
421CBD71
421CD1EC
421CE666
421CFAE1
421D0F5C
421D23D7
421D3852
421D4CCD
421D6148
421D75C3
421D8A3D
421D9EB8
421DB333
421DC7AE
421DDC29
421DF0A4
421E051F
421E199A
421E2E14
421E428F
421E570A
421E6B85
421E8000
421E947B
421EA8F6
421EBD71
421ED1EC
421EE666
421EFAE1
421F0F5C
421F23D7
421F3852
421F4CCD
421F6148
421F75C3
421F8A3D
421F9EB8
421FB333
421FC7AE
421FDC29
421FF0A4
4220051F
4220199A
42202E14
4220428F
4220570A
42206B85
42208000
4220947B
4220A8F6
4220BD71
4220D1EC
4220E666
4220FAE1
42210F5C
422123D7
42213852
42214CCD
42216148
422175C3
42218A3D
42219EB8
4221B333
4221C7AE
4221DC29
4221F0A4
4222051F
4222199A
42222E14
4222428F
4222570A
42226B85
42228000
4222947B
4222A8F6
4222BD71
4222D1EC
4222E666
4222FAE1
42230F5C
422323D7
42233852
42234CCD
42236148
422375C3
42238A3D
42239EB8
4223B333
4223C7AE
4223DC29
4223F0A4
4224051F
4224199A
42242E14
4224428F
4224570A
42246B85
42248000
4224947B
4224A8F6
4224BD71
4224D1EC
4224E666
4224FAE1
42250F5C
422523D7
42253852
42254CCD
42256148
422575C3
42258A3D
42259EB8
4225B333
4225C7AE
4225DC29
4225F0A4
4226051F
4226199A
42262E14
4226428F
4226570A
42266B85
42268000
4226947B
4226A8F6
4226BD71
4226D1EC
4226E666
4226FAE1
42270F5C
422723D7
42273852
42274CCD
42276148
422775C3
42278A3D
42279EB8
4227B333
4227C7AE
4227DC29
4227F0A4
4228051F
4228199A
42282E14
4228428F
4228570A
42286B85
42288000
4228947B
4228A8F6
4228BD71
4228D1EC
4228E666
4228FAE1
42290F5C
422923D7
42293852
42294CCD
42296148
422975C3
42298A3D
42299EB8
4229B333
4229C7AE
4229DC29
4229F0A4
422A051F
422A199A
422A2E14
422A428F
422A570A
422A6B85
422A8000
422A947B
422AA8F6
422ABD71
422AD1EC
422AE666
422AFAE1
422B0F5C
422B23D7
422B3852
422B4CCD
422B6148
422B75C3
422B8A3D
422B9EB8
422BB333
422BC7AE
422BDC29
422BF0A4
422C051F
422C199A
422C2E14
422C428F
422C570A
422C6B85
422C8000
422C947B
422CA8F6
422CBD71
422CD1EC
422CE666
422CFAE1
422D0F5C
422D23D7
422D3852
422D4CCD
422D6148
422D75C3
422D8A3D
422D9EB8
422DB333
422DC7AE
422DDC29
422DF0A4
422E051F
422E199A
422E2E14
422E428F
422E570A
422E6B85
422E8000
422E947B
422EA8F6
422EBD71
422ED1EC
422EE666
422EFAE1
422F0F5C
422F23D7
422F3852
422F4CCD
422F6148
422F75C3
422F8A3D
422F9EB8
422FB333
422FC7AE
422FDC29
422FF0A4
4230051F
4230199A
42302E14
4230428F
4230570A
42306B85
42308000
4230947B
4230A8F6
4230BD71
4230D1EC
4230E666
4230FAE1
42310F5C
423123D7
42313852
42314CCD
42316148
423175C3
42318A3D
42319EB8
4231B333
4231C7AE
4231DC29
4231F0A4
4232051F
4232199A
42322E14
4232428F
4232570A
42326B85
42328000
4232947B
4232A8F6
4232BD71
4232D1EC
4232E666
4232FAE1
42330F5C
423323D7
42333852
42334CCD
42336148
423375C3
42338A3D
42339EB8
4233B333
4233C7AE
4233DC29
4233F0A4
4234051F
4234199A
42342E14
4234428F
4234570A
42346B85
42348000
4234947B
4234A8F6
4234BD71
4234D1EC
4234E666
4234FAE1
42350F5C
423523D7
42353852
42354CCD
42356148
423575C3
42358A3D
42359EB8
4235B333
4235C7AE
4235DC29
4235F0A4
4236051F
4236199A
42362E14
4236428F
4236570A
42366B85
42368000
4236947B
4236A8F6
4236BD71
4236D1EC
4236E666
4236FAE1
42370F5C
423723D7
42373852
42374CCD
42376148
423775C3
42378A3D
42379EB8
4237B333
4237C7AE
4237DC29
4237F0A4
4238051F
4238199A
42382E14
4238428F
