3C23D70A    3C343958    3C449BA6    3C54FDF3    3C656041    3C75C28F    3C83126E    3C8B4395    3C9374BC    3C9BA5E3    3CA3D70A    3CAC0831    3CB43958    3CBC6A7F    3CC49BA6    3CCCCCCD    
3CD4FDF4    3CDD2F1B    3CE56041    3CED9168    3CF5C28F    3CFDF3B6    3D03126F    3D072B02    3D0B4395    3D0F5C29    3D1374BC    3D178D50    3D1BA5E3    3D1FBE77    3D23D70A    3D27EF9E    
3D2C0831    3D3020C5    3D343958    3D3851EB    3D3C6A7F    3D408312    3D449BA6    3D48B439    3D4CCCCD    3D50E560    3D54FDF4    3D591687    3D5D2F1B    3D6147AE    3D656041    3D6978D5    
3D6D9168    3D71A9FC    3D75C28F    3D79DB23    3D7DF3B6    3D810625    3D83126F    3D851EB8    3D872B02    3D89374C    3D8B4395    3D8D4FDF    3D8F5C29    3D916873    3D9374BC    3D958106    
3D978D50    3D99999A    3D9BA5E3    3D9DB22D    3D9FBE77    3DA1CAC0    3DA3D70A    3DA5E354    3DA7EF9E    3DA9FBE7    3DAC0831    3DAE147B    3DB020C5    3DB22D0E    3DB43958    3DB645A2    
3DB851EB    3DBA5E35    3DBC6A7F    3DBE76C9    3DC08312    3DC28F5C    3DC49BA6    3DC6A7F0    3DC8B439    3DCAC083    3DCCCCCD    3DCED916    3DD0E560    3DD2F1AA    3DD4FDF4    3DD70A3D    
3DD91687    3DDB22D1    3DDD2F1B    3DDF3B64    3DE147AE    3DE353F8    3DE56042    3DE76C8B    3DE978D5    3DEB851F    3DED9168    3DEF9DB2    3DF1A9FC    3DF3B646    3DF5C28F    3DF7CED9    
3DF9DB23    3DFBE76D    3DFDF3B6    3E000000    3E010625    3E020C4A    3E03126F    3E041893    3E051EB8    3E0624DD    3E072B02    3E083127    3E09374C    3E0A3D71    3E0B4395    3E0C49BA    
3E0D4FDF    3E0E5604    3E0F5C29    3E10624E    3E116873    3E126E98    3E1374BC    3E147AE1    3E158106    3E16872B    3E178D50    3E189375    3E19999A    3E1A9FBE    3E1BA5E3    3E1CAC08    
3E1DB22D    3E1EB852    3E1FBE77    3E20C49C    3E21CAC0    3E22D0E5    3E23D70A    3E24DD2F    3E25E354    3E26E979    3E27EF9E    3E28F5C3    3E29FBE7    3E2B020C    3E2C0831    3E2D0E56    
3E2E147B    3E2F1AA0    3E3020C5    3E3126E9    3E322D0E    3E333333    3E343958    3E353F7D    3E3645A2    3E374BC7    3E3851EC    3E395810    3E3A5E35    3E3B645A    3E3C6A7F    3E3D70A4    
3E3E76C9    3E3F7CEE    3E408312    3E418937    3E428F5C    3E439581    3E449BA6    3E45A1CB    3E46A7F0    3E47AE14    3E48B439    3E49BA5E    3E4AC083    3E4BC6A8    3E4CCCCD    3E4DD2F2    
3E4ED917    3E4FDF3B    3E50E560    3E51EB85    3E52F1AA    3E53F7CF    3E54FDF4    3E560419    3E570A3D    3E581062    3E591687    3E5A1CAC    3E5B22D1    3E5C28F6    3E5D2F1B    3E5E353F    
3E5F3B64    3E604189    3E6147AE    3E624DD3    3E6353F8    3E645A1D    3E656042    3E666666    3E676C8B    3E6872B0    3E6978D5    3E6A7EFA    3E6B851F    3E6C8B44    3E6D9168    3E6E978D    
3E6F9DB2    3E70A3D7    3E71A9FC    3E72B021    3E73B646    3E74BC6A    3E75C28F    3E76C8B4    3E77CED9    3E78D4FE    3E79DB23    3E7AE148    3E7BE76D    3E7CED91    3E7DF3B6    3E7EF9DB    
3E800000    3E808312    3E810625    3E818937    3E820C4A    3E828F5C    3E83126F    3E839581    3E841893    3E849BA6    3E851EB8    3E85A1CB    3E8624DD    3E86A7F0    3E872B02    3E87AE14    
3E883127    3E88B439    3E89374C    3E89BA5E    3E8A3D71    3E8AC083    3E8B4395    3E8BC6A8    3E8C49BA    3E8CCCCD    3E8D4FDF    3E8DD2F2    3E8E5604    3E8ED917    3E8F5C29    3E8FDF3B    
3E90624E    3E90E560    3E916873    3E91EB85    3E926E98    3E92F1AA    3E9374BC    3E93F7CF    3E947AE1    3E94FDF4    3E958106    3E960419    3E96872B    3E970A3D    3E978D50    3E981062    
3E989375    3E991687    3E99999A    3E9A1CAC    3E9A9FBE    3E9B22D1    3E9BA5E3    3E9C28F6    3E9CAC08    3E9D2F1B    3E9DB22D    3E9E353F    3E9EB852    3E9F3B64    3E9FBE77    3EA04189    
3EA0C49C    3EA147AE    3EA1CAC1    3EA24DD3    3EA2D0E5    3EA353F8    3EA3D70A    3EA45A1D    3EA4DD2F    3EA56042    3EA5E354    3EA66666    3EA6E979    3EA76C8B    3EA7EF9E    3EA872B0    
3EA8F5C3    3EA978D5    3EA9FBE7    3EAA7EFA    3EAB020C    3EAB851F    3EAC0831    3EAC8B44    3EAD0E56    3EAD9168    3EAE147B    3EAE978D    3EAF1AA0    3EAF9DB2    3EB020C5    3EB0A3D7    
3EB126E9    3EB1A9FC    3EB22D0E    3EB2B021    3EB33333    3EB3B646    3EB43958    3EB4BC6A    3EB53F7D    3EB5C28F    3EB645A2    3EB6C8B4    3EB74BC7    3EB7CED9    3EB851EC    3EB8D4FE    
3EB95810    3EB9DB23    3EBA5E35    3EBAE148    3EBB645A    3EBBE76D    3EBC6A7F    3EBCED91    3EBD70A4    3EBDF3B6    3EBE76C9    3EBEF9DB    3EBF7CEE    3EC00000    3EC08312    3EC10625    
3EC18937    3EC20C4A    3EC28F5C    3EC3126F    3EC39581    3EC41893    3EC49BA6    3EC51EB8    3EC5A1CB    3EC624DD    3EC6A7F0    3EC72B02    3EC7AE14    3EC83127    3EC8B439    3EC9374C    
3EC9BA5E    3ECA3D71    3ECAC083    3ECB4395    3ECBC6A8    3ECC49BA    3ECCCCCD    3ECD4FDF    3ECDD2F2    3ECE5604    3ECED917    3ECF5C29    3ECFDF3B    3ED0624E    3ED0E560    3ED16873    
3ED1EB85    3ED26E98    3ED2F1AA    3ED374BC    3ED3F7CF    3ED47AE1    3ED4FDF4    3ED58106    3ED60419    3ED6872B    3ED70A3D    3ED78D50    3ED81062    3ED89375    3ED91687    3ED9999A    
3EDA1CAC    3EDA9FBE    3EDB22D1    3EDBA5E3    3EDC28F6    3EDCAC08    3EDD2F1B    3EDDB22D    3EDE353F    3EDEB852    3EDF3B64    3EDFBE77    3EE04189    3EE0C49C    3EE147AE    3EE1CAC1    
3EE24DD3    3EE2D0E5    3EE353F8    3EE3D70A    3EE45A1D    3EE4DD2F    3EE56042    3EE5E354    3EE66666    3EE6E979    3EE76C8B    3EE7EF9E    3EE872B0    3EE8F5C3    3EE978D5    3EE9FBE7    
3EEA7EFA    3EEB020C    3EEB851F    3EEC0831    3EEC8B44    3EED0E56    3EED9168    3EEE147B    3EEE978D    3EEF1AA0    3EEF9DB2    3EF020C5    3EF0A3D7    3EF126E9    3EF1A9FC    3EF22D0E    
3EF2B021    3EF33333    3EF3B646    3EF43958    3EF4BC6A    3EF53F7D    3EF5C28F    3EF645A2    3EF6C8B4    3EF74BC7    3EF7CED9    3EF851EC    3EF8D4FE    3EF95810    3EF9DB23    3EFA5E35    
3EFAE148    3EFB645A    3EFBE76D    3EFC6A7F    3EFCED91    3EFD70A4    3EFDF3B6    3EFE76C9    3EFEF9DB    3EFF7CEE    3F000000    3F004189    3F008312    3F00C49C    3F010625    3F0147AE    
3F018937    3F01CAC1    3F020C4A    3F024DD3    3F028F5C    3F02D0E5    3F03126F    3F0353F8    3F039581    3F03D70A    3F041893    3F045A1D    3F049BA6    3F04DD2F    3F051EB8    3F056042    
3F05A1CB    3F05E354    3F0624DD    3F066666    3F06A7F0    3F06E979    3F072B02    3F076C8B    3F07AE14    3F07EF9E    3F083127    3F0872B0    3F08B439    3F08F5C3    3F09374C    3F0978D5    
3F09BA5E    3F09FBE7    3F0A3D71    3F0A7EFA    3F0AC083    3F0B020C    3F0B4396    3F0B851F    3F0BC6A8    3F0C0831    3F0C49BA    3F0C8B44    3F0CCCCD    3F0D0E56    3F0D4FDF    3F0D9168    
3F0DD2F2    3F0E147B    3F0E5604    3F0E978D    3F0ED917    3F0F1AA0    3F0F5C29    3F0F9DB2    3F0FDF3B    3F1020C5    3F10624E    3F10A3D7    3F10E560    3F1126E9    3F116873    3F11A9FC    
3F11EB85    3F122D0E    3F126E98    3F12B021    3F12F1AA    3F133333    3F1374BC    3F13B646    3F13F7CF    3F143958    3F147AE1    3F14BC6A    3F14FDF4    3F153F7D    3F158106    3F15C28F    
3F160419    3F1645A2    3F16872B    3F16C8B4    3F170A3D    3F174BC7    3F178D50    3F17CED9    3F181062    3F1851EC    3F189375    3F18D4FE    3F191687    3F195810    3F19999A    3F19DB23    
3F1A1CAC    3F1A5E35    3F1A9FBE    3F1AE148    3F1B22D1    3F1B645A    3F1BA5E3    3F1BE76D    3F1C28F6    3F1C6A7F    3F1CAC08    3F1CED91    3F1D2F1B    3F1D70A4    3F1DB22D    3F1DF3B6    
3F1E353F    3F1E76C9    3F1EB852    3F1EF9DB    3F1F3B64    3F1F7CEE    3F1FBE77    3F200000    3F204189    3F208312    3F20C49C    3F210625    3F2147AE    3F218937    3F21CAC1    3F220C4A    
3F224DD3    3F228F5C    3F22D0E5    3F23126F    3F2353F8    3F239581    3F23D70A    3F241893    3F245A1D    3F249BA6    3F24DD2F    3F251EB8    3F256042    3F25A1CB    3F25E354    3F2624DD    
3F266666    3F26A7F0    3F26E979    3F272B02    3F276C8B    3F27AE14    3F27EF9E    3F283127    3F2872B0    3F28B439    3F28F5C3    3F29374C    3F2978D5    3F29BA5E    3F29FBE7    3F2A3D71    
3F2A7EFA    3F2AC083    3F2B020C    3F2B4396    3F2B851F    3F2BC6A8    3F2C0831    3F2C49BA    3F2C8B44    3F2CCCCD    3F2D0E56    3F2D4FDF    3F2D9168    3F2DD2F2    3F2E147B    3F2E5604    
3F2E978D    3F2ED917    3F2F1AA0    3F2F5C29    3F2F9DB2    3F2FDF3B    3F3020C5    3F30624E    3F30A3D7    3F30E560    3F3126E9    3F316873    3F31A9FC    3F31EB85    3F322D0E    3F326E98    
3F32B021    3F32F1AA    3F333333    3F3374BC    3F33B646    3F33F7CF    3F343958    3F347AE1    3F34BC6A    3F34FDF4    3F353F7D    3F358106    3F35C28F    3F360419    3F3645A2    3F36872B    
3F36C8B4    3F370A3D    3F374BC7    3F378D50    3F37CED9    3F381062    3F3851EC    3F389375    3F38D4FE    3F391687    3F395810    3F39999A    3F39DB23    3F3A1CAC    3F3A5E35    3F3A9FBE    
3F3AE148    3F3B22D1    3F3B645A    3F3BA5E3    3F3BE76D    3F3C28F6    3F3C6A7F    3F3CAC08    3F3CED91    3F3D2F1B    3F3D70A4    3F3DB22D    3F3DF3B6    3F3E353F    3F3E76C9    3F3EB852    
3F3EF9DB    3F3F3B64    3F3F7CEE    3F3FBE77    3F400000    3F404189    3F408312    3F40C49C    3F410625    3F4147AE    3F418937    3F41CAC1    3F420C4A    3F424DD3    3F428F5C    3F42D0E5    
3F43126F    3F4353F8    3F439581    3F43D70A    3F441893    3F445A1D    3F449BA6    3F44DD2F    3F451EB8    3F456042    3F45A1CB    3F45E354    3F4624DD    3F466666    3F46A7F0    3F46E979    
3F472B02    3F476C8B    3F47AE14    3F47EF9E    3F483127    3F4872B0    3F48B439    3F48F5C3    3F49374C    3F4978D5    3F49BA5E    3F49FBE7    3F4A3D71    3F4A7EFA    3F4AC083    3F4B020C    
3F4B4396    3F4B851F    3F4BC6A8    3F4C0831    3F4C49BA    3F4C8B44    3F4CCCCD    3F4D0E56    3F4D4FDF    3F4D9168    3F4DD2F2    3F4E147B    3F4E5604    3F4E978D    3F4ED917    3F4F1AA0    
3F4F5C29    3F4F9DB2    3F4FDF3B    3F5020C5    3F50624E    3F50A3D7    3F50E560    3F5126E9    3F516873    3F51A9FC    3F51EB85    3F522D0E    3F526E98    3F52B021    3F52F1AA    3F533333    
3F5374BC    3F53B646    3F53F7CF    3F543958    3F547AE1    3F54BC6A    3F54FDF4    3F553F7D    3F558106    3F55C28F    3F560419    3F5645A2    3F56872B    3F56C8B4    3F570A3D    3F574BC7    
3F578D50    3F57CED9    3F581062    3F5851EC    3F589375    3F58D4FE    3F591687    3F595810    3F59999A    3F59DB23    3F5A1CAC    3F5A5E35    3F5A9FBE    3F5AE148    3F5B22D1    3F5B645A    
3F5BA5E3    3F5BE76D    3F5C28F6    3F5C6A7F    3F5CAC08    3F5CED91    3F5D2F1B    3F5D70A4    3F5DB22D    3F5DF3B6    3F5E353F    3F5E76C9    3F5EB852    3F5EF9DB    3F5F3B64    3F5F7CEE    
3F5FBE77    3F600000    3F604189    3F608312    3F60C49C    3F610625    3F6147AE    3F618937    3F61CAC1    3F620C4A    3F624DD3    3F628F5C    3F62D0E5    3F63126F    3F6353F8    3F639581    
3F63D70A    3F641893    3F645A1D    3F649BA6    3F64DD2F    3F651EB8    3F656042    3F65A1CB    3F65E354    3F6624DD    3F666666    3F66A7F0    3F66E979    3F672B02    3F676C8B    3F67AE14    
3F67EF9E    3F683127    3F6872B0    3F68B439    3F68F5C3    3F69374C    3F6978D5    3F69BA5E    3F69FBE7    3F6A3D71    3F6A7EFA    3F6AC083    3F6B020C    3F6B4396    3F6B851F    3F6BC6A8    
3F6C0831    3F6C49BA    3F6C8B44    3F6CCCCD    3F6D0E56    3F6D4FDF    3F6D9168    3F6DD2F2    3F6E147B    3F6E5604    3F6E978D    3F6ED917    3F6F1AA0    3F6F5C29    3F6F9DB2    3F6FDF3B    
3F7020C5    3F70624E    3F70A3D7    3F70E560    3F7126E9    3F716873    3F71A9FC    3F71EB85    3F722D0E    3F726E98    3F72B021    3F72F1AA    3F733333    3F7374BC    3F73B646    3F73F7CF    
3F743958    3F747AE1    3F74BC6A    3F74FDF4    3F753F7D    3F758106    3F75C28F    3F760419    3F7645A2    3F76872B    3F76C8B4    3F770A3D    3F774BC7    3F778D50    3F77CED9    3F781062    
3F7851EC    3F789375    3F78D4FE    3F791687    3F795810    3F79999A    3F79DB23    3F7A1CAC    3F7A5E35    3F7A9FBE    3F7AE148    3F7B22D1    3F7B645A    3F7BA5E3    3F7BE76D    3F7C28F6    
3F7C6A7F    3F7CAC08    3F7CED91    3F7D2F1B    3F7D70A4    3F7DB22D    3F7DF3B6    3F7E353F    3F7E76C9    3F7EB852    3F7EF9DB    3F7F3B64    3F7F7CEE    3F7FBE77    3F800000    3F8020C5    
3F804189    3F80624E    3F808312    3F80A3D7    3F80C49C    3F80E560    3F810625    3F8126E9    3F8147AE    3F816873    3F818937    3F81A9FC    3F81CAC1    3F81EB85    3F820C4A    3F822D0E    
3F824DD3    3F826E98    3F828F5C    3F82B021    3F82D0E5    3F82F1AA    3F83126F    3F833333    3F8353F8    3F8374BC    3F839581    3F83B646    3F83D70A    3F83F7CF    3F841893    3F843958    
3F845A1D    3F847AE1    3F849BA6    3F84BC6A    3F84DD2F    3F84FDF4    3F851EB8    3F853F7D    3F856042    3F858106    3F85A1CB    3F85C28F    3F85E354    3F860419    3F8624DD    3F8645A2    
3F866666    3F86872B    3F86A7F0    3F86C8B4    3F86E979    3F870A3D    3F872B02    3F874BC7    3F876C8B    3F878D50    3F87AE14    3F87CED9    3F87EF9E    3F881062    3F883127    3F8851EC    
3F8872B0    3F889375    3F88B439    3F88D4FE    3F88F5C3    3F891687    3F89374C    3F895810    3F8978D5    3F89999A    3F89BA5E    3F89DB23    3F89FBE7    3F8A1CAC    3F8A3D71    3F8A5E35    
3F8A7EFA    3F8A9FBE    3F8AC083    3F8AE148    3F8B020C    3F8B22D1    3F8B4396    3F8B645A    3F8B851F    3F8BA5E3    3F8BC6A8    3F8BE76D    3F8C0831    3F8C28F6    3F8C49BA    3F8C6A7F    
3F8C8B44    3F8CAC08    3F8CCCCD    3F8CED91    3F8D0E56    3F8D2F1B    3F8D4FDF    3F8D70A4    3F8D9168    3F8DB22D    3F8DD2F2    3F8DF3B6    3F8E147B    3F8E353F    3F8E5604    3F8E76C9    
3F8E978D    3F8EB852    3F8ED917    3F8EF9DB    3F8F1AA0    3F8F3B64    3F8F5C29    3F8F7CEE    3F8F9DB2    3F8FBE77    3F8FDF3B    3F900000    3F9020C5    3F904189    3F90624E    3F908312    
3F90A3D7    3F90C49C    3F90E560    3F910625    3F9126E9    3F9147AE    3F916873    3F918937    3F91A9FC    3F91CAC1    3F91EB85    3F920C4A    3F922D0E    3F924DD3    3F926E98    3F928F5C    
3F92B021    3F92D0E5    3F92F1AA    3F93126F    3F933333    3F9353F8    3F9374BC    3F939581    3F93B646    3F93D70A    3F93F7CF    3F941893    3F943958    3F945A1D    3F947AE1    3F949BA6    
3F94BC6A    3F94DD2F    3F94FDF4    3F951EB8    3F953F7D    3F956042    3F958106    3F95A1CB    3F95C28F    3F95E354    3F960419    3F9624DD    3F9645A2    3F966666    3F96872B    3F96A7F0    
3F96C8B4    3F96E979    3F970A3D    3F972B02    3F974BC7    3F976C8B    3F978D50    3F97AE14    3F97CED9    3F97EF9E    3F981062    3F983127    3F9851EC    3F9872B0    3F989375    3F98B439    
3F98D4FE    3F98F5C3    3F991687    3F99374C    3F995810    3F9978D5    3F99999A    3F99BA5E    3F99DB23    3F99FBE7    3F9A1CAC    3F9A3D71    3F9A5E35    3F9A7EFA    3F9A9FBE    3F9AC083    
3F9AE148    3F9B020C    3F9B22D1    3F9B4396    3F9B645A    3F9B851F    3F9BA5E3    3F9BC6A8    3F9BE76D    3F9C0831    3F9C28F6    3F9C49BA    3F9C6A7F    3F9C8B44    3F9CAC08    3F9CCCCD    
3F9CED91    3F9D0E56    3F9D2F1B    3F9D4FDF    3F9D70A4    3F9D9168    3F9DB22D    3F9DD2F2    3F9DF3B6    3F9E147B    3F9E353F    3F9E5604    3F9E76C9    3F9E978D    3F9EB852    3F9ED917    
3F9EF9DB    3F9F1AA0    3F9F3B64    3F9F5C29    3F9F7CEE    3F9F9DB2    3F9FBE77    3F9FDF3B    3FA00000    3FA020C5    3FA04189    3FA0624E    3FA08312    3FA0A3D7    3FA0C49C    3FA0E560    
3FA10625    3FA126E9    3FA147AE    3FA16873    3FA18937    3FA1A9FC    3FA1CAC1    3FA1EB85    3FA20C4A    3FA22D0E    3FA24DD3    3FA26E98    3FA28F5C    3FA2B021    3FA2D0E5    3FA2F1AA    
3FA3126F    3FA33333    3FA353F8    3FA374BC    3FA39581    3FA3B646    3FA3D70A    3FA3F7CF    3FA41893    3FA43958    3FA45A1D    3FA47AE1    3FA49BA6    3FA4BC6A    3FA4DD2F    3FA4FDF4    
3FA51EB8    3FA53F7D    3FA56042    3FA58106    3FA5A1CB    3FA5C28F    3FA5E354    3FA60419    3FA624DD    3FA645A2    3FA66666    3FA6872B    3FA6A7F0    3FA6C8B4    3FA6E979    3FA70A3D    
3FA72B02    3FA74BC7    3FA76C8B    3FA78D50    3FA7AE14    3FA7CED9    3FA7EF9E    3FA81062    3FA83127    3FA851EC    3FA872B0    3FA89375    3FA8B439    3FA8D4FE    3FA8F5C3    3FA91687    
3FA9374C    3FA95810    3FA978D5    3FA9999A    3FA9BA5E    3FA9DB23    3FA9FBE7    3FAA1CAC    3FAA3D71    3FAA5E35    3FAA7EFA    3FAA9FBE    3FAAC083    3FAAE148    3FAB020C    3FAB22D1    
3FAB4396    3FAB645A    3FAB851F    3FABA5E3    3FABC6A8    3FABE76D    3FAC0831    3FAC28F6    3FAC49BA    3FAC6A7F    3FAC8B44    3FACAC08    3FACCCCD    3FACED91    3FAD0E56    3FAD2F1B    
3FAD4FDF    3FAD70A4    3FAD9168    3FADB22D    3FADD2F2    3FADF3B6    3FAE147B    3FAE353F    3FAE5604    3FAE76C9    3FAE978D    3FAEB852    3FAED917    3FAEF9DB    3FAF1AA0    3FAF3B64    
3FAF5C29    3FAF7CEE    3FAF9DB2    3FAFBE77    3FAFDF3B    3FB00000    3FB020C5    3FB04189    3FB0624E    3FB08312    3FB0A3D7    3FB0C49C    3FB0E560    3FB10625    3FB126E9    3FB147AE    
3FB16873    3FB18937    3FB1A9FC    3FB1CAC1    3FB1EB85    3FB20C4A    3FB22D0E    3FB24DD3    3FB26E98    3FB28F5C    3FB2B021    3FB2D0E5    3FB2F1AA    3FB3126F    3FB33333    3FB353F8    
3FB374BC    3FB39581    3FB3B646    3FB3D70A    3FB3F7CF    3FB41893    3FB43958    3FB45A1D    3FB47AE1    3FB49BA6    3FB4BC6A    3FB4DD2F    3FB4FDF4    3FB51EB8    3FB53F7D    3FB56042    
3FB58106    3FB5A1CB    3FB5C28F    3FB5E354    3FB60419    3FB624DD    3FB645A2    3FB66666    3FB6872B    3FB6A7F0    3FB6C8B4    3FB6E979    3FB70A3D    3FB72B02    3FB74BC7    3FB76C8B    
3FB78D50    3FB7AE14    3FB7CED9    3FB7EF9E    3FB81062    3FB83127    3FB851EC    3FB872B0    3FB89375    3FB8B439    3FB8D4FE    3FB8F5C3    3FB91687    3FB9374C    3FB95810    3FB978D5    
3FB9999A    3FB9BA5E    3FB9DB23    3FB9FBE7    3FBA1CAC    3FBA3D71    3FBA5E35    3FBA7EFA    3FBA9FBE    3FBAC083    3FBAE148    3FBB020C    3FBB22D1    3FBB4396    3FBB645A    3FBB851F    
3FBBA5E3    3FBBC6A8    3FBBE76D    3FBC0831    3FBC28F6    3FBC49BA    3FBC6A7F    3FBC8B44    3FBCAC08    3FBCCCCD    3FBCED91    3FBD0E56    3FBD2F1B    3FBD4FDF    3FBD70A4    3FBD9168    
3FBDB22D    3FBDD2F2    3FBDF3B6    3FBE147B    3FBE353F    3FBE5604    3FBE76C9    3FBE978D    3FBEB852    3FBED917    3FBEF9DB    3FBF1AA0    3FBF3B64    3FBF5C29    3FBF7CEE    3FBF9DB2    
3FBFBE77    3FBFDF3B    3FC00000    3FC020C5    3FC04189    3FC0624E    3FC08312    3FC0A3D7    3FC0C49C    3FC0E560    3FC10625    3FC126E9    3FC147AE    3FC16873    3FC18937    3FC1A9FC    
3FC1CAC1    3FC1EB85    3FC20C4A    3FC22D0E    3FC24DD3    3FC26E98    3FC28F5C    3FC2B021    3FC2D0E5    3FC2F1AA    3FC3126F    3FC33333    3FC353F8    3FC374BC    3FC39581    3FC3B646    
3FC3D70A    3FC3F7CF    3FC41893    3FC43958    3FC45A1D    3FC47AE1    3FC49BA6    3FC4BC6A    3FC4DD2F    3FC4FDF4    3FC51EB8    3FC53F7D    3FC56042    3FC58106    3FC5A1CB    3FC5C28F    
3FC5E354    3FC60419    3FC624DD    3FC645A2    3FC66666    3FC6872B    3FC6A7F0    3FC6C8B4    3FC6E979    3FC70A3D    3FC72B02    3FC74BC7    3FC76C8B    3FC78D50    3FC7AE14    3FC7CED9    
3FC7EF9E    3FC81062    3FC83127    3FC851EC    3FC872B0    3FC89375    3FC8B439    3FC8D4FE    3FC8F5C3    3FC91687    3FC9374C    3FC95810    3FC978D5    3FC9999A    3FC9BA5E    3FC9DB23    
3FC9FBE7    3FCA1CAC    3FCA3D71    3FCA5E35    3FCA7EFA    3FCA9FBE    3FCAC083    3FCAE148    3FCB020C    3FCB22D1    3FCB4396    3FCB645A    3FCB851F    3FCBA5E3    3FCBC6A8    3FCBE76D    
3FCC0831    3FCC28F6    3FCC49BA    3FCC6A7F    3FCC8B44    3FCCAC08    3FCCCCCD    3FCCED91    3FCD0E56    3FCD2F1B    3FCD4FDF    3FCD70A4    3FCD9168    3FCDB22D    3FCDD2F2    3FCDF3B6    
3FCE147B    3FCE353F    3FCE5604    3FCE76C9    3FCE978D    3FCEB852    3FCED917    3FCEF9DB    3FCF1AA0    3FCF3B64    3FCF5C29    3FCF7CEE    3FCF9DB2    3FCFBE77    3FCFDF3B    3FD00000    
3FD020C5    3FD04189    3FD0624E    3FD08312    3FD0A3D7    3FD0C49C    3FD0E560    3FD10625    3FD126E9    3FD147AE    3FD16873    3FD18937    3FD1A9FC    3FD1CAC1    3FD1EB85    3FD20C4A    
3FD22D0E    3FD24DD3    3FD26E98    3FD28F5C    3FD2B021    3FD2D0E5    3FD2F1AA    3FD3126F    3FD33333    3FD353F8    3FD374BC    3FD39581    3FD3B646    3FD3D70A    3FD3F7CF    3FD41893    
3FD43958    3FD45A1D    3FD47AE1    3FD49BA6    3FD4BC6A    3FD4DD2F    3FD4FDF4    3FD51EB8    3FD53F7D    3FD56042    3FD58106    3FD5A1CB    3FD5C28F    3FD5E354    3FD60419    3FD624DD    
3FD645A2    3FD66666    3FD6872B    3FD6A7F0    3FD6C8B4    3FD6E979    3FD70A3D    3FD72B02    3FD74BC7    3FD76C8B    3FD78D50    3FD7AE14    3FD7CED9    3FD7EF9E    3FD81062    3FD83127    
3FD851EC    3FD872B0    3FD89375    3FD8B439    3FD8D4FE    3FD8F5C3    3FD91687    3FD9374C    3FD95810    3FD978D5    3FD9999A    3FD9BA5E    3FD9DB23    3FD9FBE7    3FDA1CAC    3FDA3D71    
3FDA5E35    3FDA7EFA    3FDA9FBE    3FDAC083    3FDAE148    3FDB020C    3FDB22D1    3FDB4396    3FDB645A    3FDB851F    3FDBA5E3    3FDBC6A8    3FDBE76D    3FDC0831    3FDC28F6    3FDC49BA    
3FDC6A7F    3FDC8B44    3FDCAC08    3FDCCCCD    3FDCED91    3FDD0E56    3FDD2F1B    3FDD4FDF    3FDD70A4    3FDD9168    3FDDB22D    3FDDD2F2    3FDDF3B6    3FDE147B    3FDE353F    3FDE5604    
3FDE76C9    3FDE978D    3FDEB852    3FDED917    3FDEF9DB    3FDF1AA0    3FDF3B64    3FDF5C29    3FDF7CEE    3FDF9DB2    3FDFBE77    3FDFDF3B    3FE00000    3FE020C5    3FE04189    3FE0624E    
3FE08312    3FE0A3D7    3FE0C49C    3FE0E560    3FE10625    3FE126E9    3FE147AE    3FE16873    3FE18937    3FE1A9FC    3FE1CAC1    3FE1EB85    3FE20C4A    3FE22D0E    3FE24DD3    3FE26E98    
3FE28F5C    3FE2B021    3FE2D0E5    3FE2F1AA    3FE3126F    3FE33333    3FE353F8    3FE374BC    3FE39581    3FE3B646    3FE3D70A    3FE3F7CF    3FE41893    3FE43958    3FE45A1D    3FE47AE1    
3FE49BA6    3FE4BC6A    3FE4DD2F    3FE4FDF4    3FE51EB8    3FE53F7D    3FE56042    3FE58106    3FE5A1CB    3FE5C28F    3FE5E354    3FE60419    3FE624DD    3FE645A2    3FE66666    3FE6872B    
3FE6A7F0    3FE6C8B4    3FE6E979    3FE70A3D    3FE72B02    3FE74BC7    3FE76C8B    3FE78D50    3FE7AE14    3FE7CED9    3FE7EF9E    3FE81062    3FE83127    3FE851EC    3FE872B0    3FE89375    
3FE8B439    3FE8D4FE    3FE8F5C3    3FE91687    3FE9374C    3FE95810    3FE978D5    3FE9999A    3FE9BA5E    3FE9DB23    3FE9FBE7    3FEA1CAC    3FEA3D71    3FEA5E35    3FEA7EFA    3FEA9FBE    
3FEAC083    3FEAE148    3FEB020C    3FEB22D1    3FEB4396    3FEB645A    3FEB851F    3FEBA5E3    3FEBC6A8    3FEBE76D    3FEC0831    3FEC28F6    3FEC49BA    3FEC6A7F    3FEC8B44    3FECAC08    
3FECCCCD    3FECED91    3FED0E56    3FED2F1B    3FED4FDF    3FED70A4    3FED9168    3FEDB22D    3FEDD2F2    3FEDF3B6    3FEE147B    3FEE353F    3FEE5604    3FEE76C9    3FEE978D    3FEEB852    
3FEED917    3FEEF9DB    3FEF1AA0    3FEF3B64    3FEF5C29    3FEF7CEE    3FEF9DB2    3FEFBE77    3FEFDF3B    3FF00000    3FF020C5    3FF04189    3FF0624E    3FF08312    3FF0A3D7    3FF0C49C    
3FF0E560    3FF10625    3FF126E9    3FF147AE    3FF16873    3FF18937    3FF1A9FC    3FF1CAC1    3FF1EB85    3FF20C4A    3FF22D0E    3FF24DD3    3FF26E98    3FF28F5C    3FF2B021    3FF2D0E5    
3FF2F1AA    3FF3126F    3FF33333    3FF353F8    3FF374BC    3FF39581    3FF3B646    3FF3D70A    3FF3F7CF    3FF41893    3FF43958    3FF45A1D    3FF47AE1    3FF49BA6    3FF4BC6A    3FF4DD2F    
3FF4FDF4    3FF51EB8    3FF53F7D    3FF56042    3FF58106    3FF5A1CB    3FF5C28F    3FF5E354    3FF60419    3FF624DD    3FF645A2    3FF66666    3FF6872B    3FF6A7F0    3FF6C8B4    3FF6E979    
3FF70A3D    3FF72B02    3FF74BC7    3FF76C8B    3FF78D50    3FF7AE14    3FF7CED9    3FF7EF9E    3FF81062    3FF83127    3FF851EC    3FF872B0    3FF89375    3FF8B439    3FF8D4FE    3FF8F5C3    
3FF91687    3FF9374C    3FF95810    3FF978D5    3FF9999A    3FF9BA5E    3FF9DB23    3FF9FBE7    3FFA1CAC    3FFA3D71    3FFA5E35    3FFA7EFA    3FFA9FBE    3FFAC083    3FFAE148    3FFB020C    
3FFB22D1    3FFB4396    3FFB645A    3FFB851F    3FFBA5E3    3FFBC6A8    3FFBE76D    3FFC0831    3FFC28F6    3FFC49BA    3FFC6A7F    3FFC8B44    3FFCAC08    3FFCCCCD    3FFCED91    3FFD0E56    
3FFD2F1B    3FFD4FDF    3FFD70A4    3FFD9168    3FFDB22D    3FFDD2F2    3FFDF3B6    3FFE147B    3FFE353F    3FFE5604    3FFE76C9    3FFE978D    3FFEB852    3FFED917    3FFEF9DB    3FFF1AA0    
3FFF3B64    3FFF5C29    3FFF7CEE    3FFF9DB2    3FFFBE77    3FFFDF3B    40000000    40001062    400020C5    40003127    40004189    400051EC    4000624E    400072B0    40008312    40009375    
4000A3D7    4000B439    4000C49C    4000D4FE    4000E560    4000F5C3    40010625    40011687    400126E9    4001374C    400147AE    40015810    40016873    400178D5    40018937    4001999A    
4001A9FC    4001BA5E    4001CAC1    4001DB23    4001EB85    4001FBE7    40020C4A    40021CAC    40022D0E    40023D71    40024DD3    40025E35    40026E98    40027EFA    40028F5C    40029FBE    
4002B021    4002C083    4002D0E5    4002E148    4002F1AA    4003020C    4003126F    400322D1    40033333    40034396    400353F8    4003645A    400374BC    4003851F    40039581    4003A5E3    
4003B646    4003C6A8    4003D70A    4003E76D    4003F7CF    40040831    40041893    400428F6    40043958    400449BA    40045A1D    40046A7F    40047AE1    40048B44    40049BA6    4004AC08    
4004BC6A    4004CCCD    4004DD2F    4004ED91    4004FDF4    40050E56    40051EB8    40052F1B    40053F7D    40054FDF    40056042    400570A4    40058106    40059168    4005A1CB    4005B22D    
4005C28F    4005D2F2    4005E354    4005F3B6    40060419    4006147B    400624DD    4006353F    400645A2    40065604    40066666    400676C9    4006872B    4006978D    4006A7F0    4006B852    
4006C8B4    4006D917    4006E979    4006F9DB    40070A3D    40071AA0    40072B02    40073B64    40074BC7    40075C29    40076C8B    40077CEE    40078D50    40079DB2    4007AE14    4007BE77    
4007CED9    4007DF3B    4007EF9E    40080000    40081062    400820C5    40083127    40084189    400851EC    4008624E    400872B0    40088312    40089375    4008A3D7    4008B439    4008C49C    
4008D4FE    4008E560    4008F5C3    40090625    40091687    400926E9    4009374C    400947AE    40095810    40096873    400978D5    40098937    4009999A    4009A9FC    4009BA5E    4009CAC1    
4009DB23    4009EB85    4009FBE7    400A0C4A    400A1CAC    400A2D0E    400A3D71    400A4DD3    400A5E35    400A6E98    400A7EFA    400A8F5C    400A9FBE    400AB021    400AC083    400AD0E5    
400AE148    400AF1AA    400B020C    400B126F    400B22D1    400B3333    400B4396    400B53F8    400B645A    400B74BC    400B851F    400B9581    400BA5E3    400BB646    400BC6A8    400BD70A    
400BE76D    400BF7CF    400C0831    400C1893    400C28F6    400C3958    400C49BA    400C5A1D    400C6A7F    400C7AE1    400C8B44    400C9BA6    400CAC08    400CBC6A    400CCCCD    400CDD2F    
400CED91    400CFDF4    400D0E56    400D1EB8    400D2F1B    400D3F7D    400D4FDF    400D6042    400D70A4    400D8106    400D9168    400DA1CB    400DB22D    400DC28F    400DD2F2    400DE354    
400DF3B6    400E0419    400E147B    400E24DD    400E353F    400E45A2    400E5604    400E6666    400E76C9    400E872B    400E978D    400EA7F0    400EB852    400EC8B4    400ED917    400EE979    
400EF9DB    400F0A3D    400F1AA0    400F2B02    400F3B64    400F4BC7    400F5C29    400F6C8B    400F7CEE    400F8D50    400F9DB2    400FAE14    400FBE77    400FCED9    400FDF3B    400FEF9E    
40100000    40101062    401020C5    40103127    40104189    401051EC    4010624E    401072B0    40108312    40109375    4010A3D7    4010B439    4010C49C    4010D4FE    4010E560    4010F5C3    
40110625    40111687    401126E9    4011374C    401147AE    40115810    40116873    401178D5    40118937    4011999A    4011A9FC    4011BA5E    4011CAC1    4011DB23    4011EB85    4011FBE7    
40120C4A    40121CAC    40122D0E    40123D71    40124DD3    40125E35    40126E98    40127EFA    40128F5C    40129FBE    4012B021    4012C083    4012D0E5    4012E148    4012F1AA    4013020C    
4013126F    401322D1    40133333    40134396    401353F8    4013645A    401374BC    4013851F    40139581    4013A5E3    4013B646    4013C6A8    4013D70A    4013E76D    4013F7CF    40140831    
