3C23D70A
3C449BA6
3C656041
3C83126E
3C9374BC
3CA3D70A
3CB43958
3CC49BA6
3CD4FDF4
3CE56041
3CF5C28F
3D03126F
3D0B4395
3D1374BC
3D1BA5E3
3D23D70A
3D2C0831
3D343958
3D3C6A7F
3D449BA6
3D4CCCCD
3D54FDF4
3D5D2F1B
3D656041
3D6D9168
3D75C28F
3D7DF3B6
3D83126F
3D872B02
3D8B4395
3D8F5C29
3D9374BC
3D978D50
3D9BA5E3
3D9FBE77
3DA3D70A
3DA7EF9E
3DAC0831
3DB020C5
3DB43958
3DB851EB
3DBC6A7F
3DC08312
3DC49BA6
3DC8B439
3DCCCCCD
3DD0E560
3DD4FDF4
3DD91687
3DDD2F1B
3DE147AE
3DE56042
3DE978D5
3DED9168
3DF1A9FC
3DF5C28F
3DF9DB23
3DFDF3B6
3E010625
3E03126F
3E051EB8
3E072B02
3E09374C
3E0B4395
3E0D4FDF
3E0F5C29
3E116873
3E1374BC
3E158106
3E178D50
3E19999A
3E1BA5E3
3E1DB22D
3E1FBE77
3E21CAC0
3E23D70A
3E25E354
3E27EF9E
3E29FBE7
3E2C0831
3E2E147B
3E3020C5
3E322D0E
3E343958
3E3645A2
3E3851EC
3E3A5E35
3E3C6A7F
3E3E76C9
3E408312
3E428F5C
3E449BA6
3E46A7F0
3E48B439
3E4AC083
3E4CCCCD
3E4ED917
3E50E560
3E52F1AA
3E54FDF4
3E570A3D
3E591687
3E5B22D1
3E5D2F1B
3E5F3B64
3E6147AE
3E6353F8
3E656042
3E676C8B
3E6978D5
3E6B851F
3E6D9168
3E6F9DB2
3E71A9FC
3E73B646
3E75C28F
3E77CED9
3E79DB23
3E7BE76D
3E7DF3B6
3E800000
3E810625
3E820C4A
3E83126F
3E841893
3E851EB8
3E8624DD
3E872B02
3E883127
3E89374C
3E8A3D71
3E8B4395
3E8C49BA
3E8D4FDF
3E8E5604
3E8F5C29
3E90624E
3E916873
3E926E98
3E9374BC
3E947AE1
3E958106
3E96872B
3E978D50
3E989375
3E99999A
3E9A9FBE
3E9BA5E3
3E9CAC08
3E9DB22D
3E9EB852
3E9FBE77
3EA0C49C
3EA1CAC1
3EA2D0E5
3EA3D70A
3EA4DD2F
3EA5E354
3EA6E979
3EA7EF9E
3EA8F5C3
3EA9FBE7
3EAB020C
3EAC0831
3EAD0E56
3EAE147B
3EAF1AA0
3EB020C5
3EB126E9
3EB22D0E
3EB33333
3EB43958
3EB53F7D
3EB645A2
3EB74BC7
3EB851EC
3EB95810
3EBA5E35
3EBB645A
3EBC6A7F
3EBD70A4
3EBE76C9
3EBF7CEE
3EC08312
3EC18937
3EC28F5C
3EC39581
3EC49BA6
3EC5A1CB
3EC6A7F0
3EC7AE14
3EC8B439
3EC9BA5E
3ECAC083
3ECBC6A8
3ECCCCCD
3ECDD2F2
3ECED917
3ECFDF3B
3ED0E560
3ED1EB85
3ED2F1AA
3ED3F7CF
3ED4FDF4
3ED60419
3ED70A3D
3ED81062
3ED91687
3EDA1CAC
3EDB22D1
3EDC28F6
3EDD2F1B
3EDE353F
3EDF3B64
3EE04189
3EE147AE
3EE24DD3
3EE353F8
3EE45A1D
3EE56042
3EE66666
3EE76C8B
3EE872B0
3EE978D5
3EEA7EFA
3EEB851F
3EEC8B44
3EED9168
3EEE978D
3EEF9DB2
3EF0A3D7
3EF1A9FC
3EF2B021
3EF3B646
3EF4BC6A
3EF5C28F
3EF6C8B4
3EF7CED9
3EF8D4FE
3EF9DB23
3EFAE148
3EFBE76D
3EFCED91
3EFDF3B6
3EFEF9DB
3F000000
3F008312
3F010625
3F018937
3F020C4A
3F028F5C
3F03126F
3F039581
3F041893
3F049BA6
3F051EB8
3F05A1CB
3F0624DD
3F06A7F0
3F072B02
3F07AE14
3F083127
3F08B439
3F09374C
3F09BA5E
3F0A3D71
3F0AC083
3F0B4396
3F0BC6A8
3F0C49BA
3F0CCCCD
3F0D4FDF
3F0DD2F2
3F0E5604
3F0ED917
3F0F5C29
3F0FDF3B
3F10624E
3F10E560
3F116873
3F11EB85
3F126E98
3F12F1AA
3F1374BC
3F13F7CF
3F147AE1
3F14FDF4
3F158106
3F160419
3F16872B
3F170A3D
3F178D50
3F181062
3F189375
3F191687
3F19999A
3F1A1CAC
3F1A9FBE
3F1B22D1
3F1BA5E3
3F1C28F6
3F1CAC08
3F1D2F1B
3F1DB22D
3F1E353F
3F1EB852
3F1F3B64
3F1FBE77
3F204189
3F20C49C
3F2147AE
3F21CAC1
3F224DD3
3F22D0E5
3F2353F8
3F23D70A
3F245A1D
3F24DD2F
3F256042
3F25E354
3F266666
3F26E979
3F276C8B
3F27EF9E
3F2872B0
3F28F5C3
3F2978D5
3F29FBE7
3F2A7EFA
3F2B020C
3F2B851F
3F2C0831
3F2C8B44
3F2D0E56
3F2D9168
3F2E147B
3F2E978D
3F2F1AA0
3F2F9DB2
3F3020C5
3F30A3D7
3F3126E9
3F31A9FC
3F322D0E
3F32B021
3F333333
3F33B646
3F343958
3F34BC6A
3F353F7D
3F35C28F
3F3645A2
3F36C8B4
3F374BC7
3F37CED9
3F3851EC
3F38D4FE
3F395810
3F39DB23
3F3A5E35
3F3AE148
3F3B645A
3F3BE76D
3F3C6A7F
3F3CED91
3F3D70A4
3F3DF3B6
3F3E76C9
3F3EF9DB
3F3F7CEE
3F400000
3F408312
3F410625
3F418937
3F420C4A
3F428F5C
3F43126F
3F439581
3F441893
3F449BA6
3F451EB8
3F45A1CB
3F4624DD
3F46A7F0
3F472B02
3F47AE14
3F483127
3F48B439
3F49374C
3F49BA5E
3F4A3D71
3F4AC083
3F4B4396
3F4BC6A8
3F4C49BA
3F4CCCCD
3F4D4FDF
3F4DD2F2
3F4E5604
3F4ED917
3F4F5C29
3F4FDF3B
3F50624E
3F50E560
3F516873
3F51EB85
3F526E98
3F52F1AA
3F5374BC
3F53F7CF
3F547AE1
3F54FDF4
3F558106
3F560419
3F56872B
3F570A3D
3F578D50
3F581062
3F589375
3F591687
3F59999A
3F5A1CAC
3F5A9FBE
3F5B22D1
3F5BA5E3
3F5C28F6
3F5CAC08
3F5D2F1B
3F5DB22D
3F5E353F
3F5EB852
3F5F3B64
3F5FBE77
3F604189
3F60C49C
3F6147AE
3F61CAC1
3F624DD3
3F62D0E5
3F6353F8
3F63D70A
3F645A1D
3F64DD2F
3F656042
3F65E354
3F666666
3F66E979
3F676C8B
3F67EF9E
3F6872B0
3F68F5C3
3F6978D5
3F69FBE7
3F6A7EFA
3F6B020C
3F6B851F
3F6C0831
3F6C8B44
3F6D0E56
3F6D9168
3F6E147B
3F6E978D
3F6F1AA0
3F6F9DB2
3F7020C5
3F70A3D7
3F7126E9
3F71A9FC
3F722D0E
3F72B021
3F733333
3F73B646
3F743958
3F74BC6A
3F753F7D
3F75C28F
3F7645A2
3F76C8B4
3F774BC7
3F77CED9
3F7851EC
3F78D4FE
3F795810
3F79DB23
3F7A5E35
3F7AE148
3F7B645A
3F7BE76D
3F7C6A7F
3F7CED91
3F7D70A4
3F7DF3B6
3F7E76C9
3F7EF9DB
3F7F7CEE
3F800000
3F804189
3F808312
3F80C49C
3F810625
3F8147AE
3F818937
3F81CAC1
3F820C4A
3F824DD3
3F828F5C
3F82D0E5
3F83126F
3F8353F8
3F839581
3F83D70A
3F841893
3F845A1D
3F849BA6
3F84DD2F
3F851EB8
3F856042
3F85A1CB
3F85E354
3F8624DD
3F866666
3F86A7F0
3F86E979
3F872B02
3F876C8B
3F87AE14
3F87EF9E
3F883127
3F8872B0
3F88B439
3F88F5C3
3F89374C
3F8978D5
3F89BA5E
3F89FBE7
3F8A3D71
3F8A7EFA
3F8AC083
3F8B020C
3F8B4396
3F8B851F
3F8BC6A8
3F8C0831
3F8C49BA
3F8C8B44
3F8CCCCD
3F8D0E56
3F8D4FDF
3F8D9168
3F8DD2F2
3F8E147B
3F8E5604
3F8E978D
3F8ED917
3F8F1AA0
3F8F5C29
3F8F9DB2
3F8FDF3B
3F9020C5
3F90624E
3F90A3D7
3F90E560
3F9126E9
3F916873
3F91A9FC
3F91EB85
3F922D0E
3F926E98
3F92B021
3F92F1AA
3F933333
3F9374BC
3F93B646
3F93F7CF
3F943958
3F947AE1
3F94BC6A
3F94FDF4
3F953F7D
3F958106
3F95C28F
3F960419
3F9645A2
3F96872B
3F96C8B4
3F970A3D
3F974BC7
3F978D50
3F97CED9
3F981062
3F9851EC
3F989375
3F98D4FE
3F991687
3F995810
3F99999A
3F99DB23
3F9A1CAC
3F9A5E35
3F9A9FBE
3F9AE148
3F9B22D1
3F9B645A
3F9BA5E3
3F9BE76D
3F9C28F6
3F9C6A7F
3F9CAC08
3F9CED91
3F9D2F1B
3F9D70A4
3F9DB22D
3F9DF3B6
3F9E353F
3F9E76C9
3F9EB852
3F9EF9DB
3F9F3B64
3F9F7CEE
3F9FBE77
3FA00000
3FA04189
3FA08312
3FA0C49C
3FA10625
3FA147AE
3FA18937
3FA1CAC1
3FA20C4A
3FA24DD3
3FA28F5C
3FA2D0E5
3FA3126F
3FA353F8
3FA39581
3FA3D70A
3FA41893
3FA45A1D
3FA49BA6
3FA4DD2F
3FA51EB8
3FA56042
3FA5A1CB
3FA5E354
3FA624DD
3FA66666
3FA6A7F0
3FA6E979
3FA72B02
3FA76C8B
3FA7AE14
3FA7EF9E
3FA83127
3FA872B0
3FA8B439
3FA8F5C3
3FA9374C
3FA978D5
3FA9BA5E
3FA9FBE7
3FAA3D71
3FAA7EFA
3FAAC083
3FAB020C
3FAB4396
3FAB851F
3FABC6A8
3FAC0831
3FAC49BA
3FAC8B44
3FACCCCD
3FAD0E56
3FAD4FDF
3FAD9168
3FADD2F2
3FAE147B
3FAE5604
3FAE978D
3FAED917
3FAF1AA0
3FAF5C29
3FAF9DB2
3FAFDF3B
3FB020C5
3FB0624E
3FB0A3D7
3FB0E560
3FB126E9
3FB16873
3FB1A9FC
3FB1EB85
3FB22D0E
3FB26E98
3FB2B021
3FB2F1AA
3FB33333
3FB374BC
3FB3B646
3FB3F7CF
3FB43958
3FB47AE1
3FB4BC6A
3FB4FDF4
3FB53F7D
3FB58106
3FB5C28F
3FB60419
3FB645A2
3FB6872B
3FB6C8B4
3FB70A3D
3FB74BC7
3FB78D50
3FB7CED9
3FB81062
3FB851EC
3FB89375
3FB8D4FE
3FB91687
3FB95810
3FB9999A
3FB9DB23
3FBA1CAC
3FBA5E35
3FBA9FBE
3FBAE148
3FBB22D1
3FBB645A
3FBBA5E3
3FBBE76D
3FBC28F6
3FBC6A7F
3FBCAC08
3FBCED91
3FBD2F1B
3FBD70A4
3FBDB22D
3FBDF3B6
3FBE353F
3FBE76C9
3FBEB852
3FBEF9DB
3FBF3B64
3FBF7CEE
3FBFBE77
3FC00000
3FC04189
3FC08312
3FC0C49C
3FC10625
3FC147AE
3FC18937
3FC1CAC1
3FC20C4A
3FC24DD3
3FC28F5C
3FC2D0E5
3FC3126F
3FC353F8
3FC39581
3FC3D70A
3FC41893
3FC45A1D
3FC49BA6
3FC4DD2F
3FC51EB8
3FC56042
3FC5A1CB
3FC5E354
3FC624DD
3FC66666
3FC6A7F0
3FC6E979
3FC72B02
3FC76C8B
3FC7AE14
3FC7EF9E
3FC83127
3FC872B0
3FC8B439
3FC8F5C3
3FC9374C
3FC978D5
3FC9BA5E
3FC9FBE7
3FCA3D71
3FCA7EFA
3FCAC083
3FCB020C
3FCB4396
3FCB851F
3FCBC6A8
3FCC0831
3FCC49BA
3FCC8B44
3FCCCCCD
3FCD0E56
3FCD4FDF
3FCD9168
3FCDD2F2
3FCE147B
3FCE5604
3FCE978D
3FCED917
3FCF1AA0
3FCF5C29
3FCF9DB2
3FCFDF3B
3FD020C5
3FD0624E
3FD0A3D7
3FD0E560
3FD126E9
3FD16873
3FD1A9FC
3FD1EB85
3FD22D0E
3FD26E98
3FD2B021
3FD2F1AA
3FD33333
3FD374BC
3FD3B646
3FD3F7CF
3FD43958
3FD47AE1
3FD4BC6A
3FD4FDF4
3FD53F7D
3FD58106
3FD5C28F
3FD60419
3FD645A2
3FD6872B
3FD6C8B4
3FD70A3D
3FD74BC7
3FD78D50
3FD7CED9
3FD81062
3FD851EC
3FD89375
3FD8D4FE
3FD91687
3FD95810
3FD9999A
3FD9DB23
3FDA1CAC
3FDA5E35
3FDA9FBE
3FDAE148
3FDB22D1
3FDB645A
3FDBA5E3
3FDBE76D
3FDC28F6
3FDC6A7F
3FDCAC08
3FDCED91
3FDD2F1B
3FDD70A4
3FDDB22D
3FDDF3B6
3FDE353F
3FDE76C9
3FDEB852
3FDEF9DB
3FDF3B64
3FDF7CEE
3FDFBE77
3FE00000
3FE04189
3FE08312
3FE0C49C
3FE10625
3FE147AE
3FE18937
3FE1CAC1
3FE20C4A
3FE24DD3
3FE28F5C
3FE2D0E5
3FE3126F
3FE353F8
3FE39581
3FE3D70A
3FE41893
3FE45A1D
3FE49BA6
3FE4DD2F
3FE51EB8
3FE56042
3FE5A1CB
3FE5E354
3FE624DD
3FE66666
3FE6A7F0
3FE6E979
3FE72B02
3FE76C8B
3FE7AE14
3FE7EF9E
3FE83127
3FE872B0
3FE8B439
3FE8F5C3
3FE9374C
3FE978D5
3FE9BA5E
3FE9FBE7
3FEA3D71
3FEA7EFA
3FEAC083
3FEB020C
3FEB4396
3FEB851F
3FEBC6A8
3FEC0831
3FEC49BA
3FEC8B44
3FECCCCD
3FED0E56
3FED4FDF
3FED9168
3FEDD2F2
3FEE147B
3FEE5604
3FEE978D
3FEED917
3FEF1AA0
3FEF5C29
3FEF9DB2
3FEFDF3B
3FF020C5
3FF0624E
3FF0A3D7
3FF0E560
3FF126E9
3FF16873
3FF1A9FC
3FF1EB85
3FF22D0E
3FF26E98
3FF2B021
3FF2F1AA
3FF33333
3FF374BC
3FF3B646
3FF3F7CF
3FF43958
3FF47AE1
3FF4BC6A
3FF4FDF4
3FF53F7D
3FF58106
3FF5C28F
3FF60419
3FF645A2
3FF6872B
3FF6C8B4
3FF70A3D
3FF74BC7
3FF78D50
3FF7CED9
3FF81062
3FF851EC
3FF89375
3FF8D4FE
3FF91687
3FF95810
3FF9999A
3FF9DB23
3FFA1CAC
3FFA5E35
3FFA9FBE
3FFAE148
3FFB22D1
3FFB645A
3FFBA5E3
3FFBE76D
3FFC28F6
3FFC6A7F
3FFCAC08
3FFCED91
3FFD2F1B
3FFD70A4
3FFDB22D
3FFDF3B6
3FFE353F
3FFE76C9
3FFEB852
3FFEF9DB
3FFF3B64
3FFF7CEE
3FFFBE77
40000000
400020C5
40004189
4000624E
40008312
4000A3D7
4000C49C
4000E560
40010625
400126E9
400147AE
40016873
40018937
4001A9FC
4001CAC1
4001EB85
40020C4A
40022D0E
40024DD3
40026E98
40028F5C
4002B021
4002D0E5
4002F1AA
4003126F
40033333
400353F8
400374BC
40039581
4003B646
4003D70A
4003F7CF
40041893
40043958
40045A1D
40047AE1
40049BA6
4004BC6A
4004DD2F
4004FDF4
40051EB8
40053F7D
40056042
40058106
4005A1CB
4005C28F
4005E354
40060419
400624DD
400645A2
40066666
4006872B
4006A7F0
4006C8B4
4006E979
40070A3D
40072B02
40074BC7
40076C8B
40078D50
4007AE14
4007CED9
4007EF9E
40081062
40083127
400851EC
400872B0
40089375
4008B439
4008D4FE
4008F5C3
40091687
4009374C
40095810
400978D5
4009999A
4009BA5E
4009DB23
4009FBE7
400A1CAC
400A3D71
400A5E35
400A7EFA
400A9FBE
400AC083
400AE148
400B020C
400B22D1
400B4396
400B645A
400B851F
400BA5E3
400BC6A8
400BE76D
400C0831
400C28F6
400C49BA
400C6A7F
400C8B44
400CAC08
400CCCCD
400CED91
400D0E56
400D2F1B
400D4FDF
400D70A4
400D9168
400DB22D
400DD2F2
400DF3B6
400E147B
400E353F
400E5604
400E76C9
400E978D
400EB852
400ED917
400EF9DB
400F1AA0
400F3B64
400F5C29
400F7CEE
400F9DB2
400FBE77
400FDF3B
40100000
401020C5
40104189
4010624E
40108312
4010A3D7
4010C49C
4010E560
40110625
401126E9
401147AE
40116873
40118937
4011A9FC
4011CAC1
4011EB85
40120C4A
40122D0E
40124DD3
40126E98
40128F5C
4012B021
4012D0E5
4012F1AA
4013126F
40133333
401353F8
401374BC
40139581
4013B646
4013D70A
4013F7CF
40141893
40143958
40145A1D
40147AE1
40149BA6
4014BC6A
4014DD2F
4014FDF4
40151EB8
40153F7D
40156042
40158106
4015A1CB
4015C28F
4015E354
40160419
401624DD
401645A2
40166666
4016872B
4016A7F0
4016C8B4
4016E979
40170A3D
40172B02
40174BC7
40176C8B
40178D50
4017AE14
4017CED9
4017EF9E
40181062
40183127
401851EC
401872B0
40189375
4018B439
4018D4FE
4018F5C3
40191687
4019374C
40195810
401978D5
4019999A
4019BA5E
4019DB23
4019FBE7
401A1CAC
401A3D71
401A5E35
401A7EFA
401A9FBE
401AC083
401AE148
401B020C
401B22D1
401B4396
401B645A
401B851F
401BA5E3
401BC6A8
401BE76D
401C0831
401C28F6
401C49BA
401C6A7F
401C8B44
401CAC08
401CCCCD
401CED91
401D0E56
401D2F1B
401D4FDF
401D70A4
401D9168
401DB22D
401DD2F2
401DF3B6
401E147B
401E353F
401E5604
401E76C9
401E978D
401EB852
401ED917
401EF9DB
401F1AA0
401F3B64
401F5C29
401F7CEE
401F9DB2
401FBE77
401FDF3B
40200000
402020C5
40204189
4020624E
40208312
4020A3D7
4020C49C
4020E560
40210625
402126E9
402147AE
40216873
40218937
4021A9FC
4021CAC1
4021EB85
40220C4A
40222D0E
40224DD3
40226E98
40228F5C
4022B021
4022D0E5
4022F1AA
4023126F
40233333
402353F8
402374BC
40239581
4023B646
4023D70A
4023F7CF
40241893
40243958
40245A1D
40247AE1
40249BA6
4024BC6A
4024DD2F
4024FDF4
40251EB8
40253F7D
40256042
40258106
4025A1CB
4025C28F
4025E354
40260419
402624DD
402645A2
40266666
4026872B
4026A7F0
4026C8B4
4026E979
40270A3D
40272B02
40274BC7
40276C8B
40278D50
4027AE14
4027CED9
4027EF9E
40281062
40283127
402851EC
402872B0
40289375
4028B439
4028D4FE
4028F5C3
40291687
4029374C
40295810
402978D5
4029999A
4029BA5E
4029DB23
4029FBE7
402A1CAC
402A3D71
402A5E35
402A7EFA
402A9FBE
402AC083
402AE148
402B020C
402B22D1
402B4396
402B645A
402B851F
402BA5E3
402BC6A8
402BE76D
402C0831
402C28F6
402C49BA
402C6A7F
402C8B44
402CAC08
402CCCCD
402CED91
402D0E56
402D2F1B
402D4FDF
402D70A4
402D9168
402DB22D
402DD2F2
402DF3B6
402E147B
402E353F
402E5604
402E76C9
402E978D
402EB852
402ED917
402EF9DB
402F1AA0
402F3B64
402F5C29
402F7CEE
402F9DB2
402FBE77
402FDF3B
40300000
403020C5
40304189
4030624E
40308312
4030A3D7
4030C49C
4030E560
40310625
403126E9
403147AE
40316873
40318937
4031A9FC
4031CAC1
4031EB85
40320C4A
40322D0E
40324DD3
40326E98
40328F5C
4032B021
4032D0E5
4032F1AA
4033126F
40333333
403353F8
403374BC
40339581
4033B646
4033D70A
4033F7CF
40341893
40343958
40345A1D
40347AE1
40349BA6
4034BC6A
4034DD2F
4034FDF4
40351EB8
40353F7D
40356042
40358106
4035A1CB
4035C28F
4035E354
40360419
403624DD
403645A2
40366666
4036872B
4036A7F0
4036C8B4
4036E979
40370A3D
40372B02
40374BC7
40376C8B
40378D50
4037AE14
4037CED9
4037EF9E
40381062
40383127
403851EC
403872B0
40389375
4038B439
4038D4FE
4038F5C3
40391687
4039374C
40395810
403978D5
4039999A
4039BA5E
4039DB23
4039FBE7
403A1CAC
403A3D71
403A5E35
403A7EFA
403A9FBE
403AC083
403AE148
403B020C
403B22D1
403B4396
403B645A
403B851F
403BA5E3
403BC6A8
403BE76D
403C0831
403C28F6
403C49BA
403C6A7F
403C8B44
403CAC08
403CCCCD
403CED91
403D0E56
403D2F1B
403D4FDF
403D70A4
403D9168
403DB22D
403DD2F2
403DF3B6
403E147B
403E353F
403E5604
403E76C9
403E978D
403EB852
403ED917
403EF9DB
403F1AA0
403F3B64
403F5C29
403F7CEE
403F9DB2
403FBE77
403FDF3B
40400000
404020C5
40404189
4040624E
40408312
4040A3D7
4040C49C
4040E560
40410625
404126E9
404147AE
40416873
40418937
4041A9FC
4041CAC1
4041EB85
40420C4A
40422D0E
40424DD3
40426E98
40428F5C
4042B021
4042D0E5
4042F1AA
4043126F
40433333
404353F8
404374BC
40439581
4043B646
4043D70A
4043F7CF
40441893
40443958
40445A1D
40447AE1
40449BA6
4044BC6A
4044DD2F
4044FDF4
40451EB8
40453F7D
40456042
40458106
4045A1CB
4045C28F
4045E354
40460419
404624DD
404645A2
40466666
4046872B
4046A7F0
4046C8B4
4046E979
40470A3D
40472B02
40474BC7
40476C8B
40478D50
4047AE14
4047CED9
4047EF9E
40481062
40483127
404851EC
404872B0
40489375
4048B439
4048D4FE
4048F5C3
40491687
4049374C
40495810
404978D5
4049999A
4049BA5E
4049DB23
4049FBE7
404A1CAC
404A3D71
404A5E35
404A7EFA
404A9FBE
404AC083
404AE148
404B020C
404B22D1
404B4396
404B645A
404B851F
404BA5E3
404BC6A8
404BE76D
404C0831
404C28F6
404C49BA
404C6A7F
404C8B44
404CAC08
404CCCCD
404CED91
404D0E56
404D2F1B
404D4FDF
404D70A4
404D9168
404DB22D
404DD2F2
404DF3B6
404E147B
404E353F
404E5604
404E76C9
404E978D
404EB852
404ED917
404EF9DB
404F1AA0
404F3B64
404F5C29
404F7CEE
404F9DB2
404FBE77
404FDF3B
40500000
405020C5
40504189
4050624E
40508312
4050A3D7
4050C49C
4050E560
40510625
405126E9
405147AE
40516873
40518937
4051A9FC
4051CAC1
4051EB85
40520C4A
40522D0E
40524DD3
40526E98
40528F5C
4052B021
4052D0E5
4052F1AA
4053126F
40533333
405353F8
405374BC
40539581
4053B646
4053D70A
4053F7CF
40541893
40543958
40545A1D
40547AE1
40549BA6
4054BC6A
4054DD2F
4054FDF4
40551EB8
40553F7D
40556042
40558106
4055A1CB
4055C28F
4055E354
40560419
405624DD
405645A2
40566666
4056872B
4056A7F0
4056C8B4
4056E979
40570A3D
40572B02
40574BC7
40576C8B
40578D50
4057AE14
4057CED9
4057EF9E
40581062
40583127
405851EC
405872B0
40589375
4058B439
4058D4FE
4058F5C3
40591687
4059374C
40595810
405978D5
4059999A
4059BA5E
4059DB23
4059FBE7
405A1CAC
405A3D71
405A5E35
405A7EFA
405A9FBE
405AC083
405AE148
405B020C
405B22D1
405B4396
405B645A
405B851F
405BA5E3
405BC6A8
405BE76D
405C0831
405C28F6
405C49BA
405C6A7F
405C8B44
405CAC08
405CCCCD
405CED91
405D0E56
405D2F1B
405D4FDF
405D70A4
405D9168
405DB22D
405DD2F2
405DF3B6
405E147B
405E353F
405E5604
405E76C9
405E978D
405EB852
405ED917
405EF9DB
405F1AA0
405F3B64
405F5C29
405F7CEE
405F9DB2
405FBE77
405FDF3B
40600000
406020C5
40604189
4060624E
40608312
4060A3D7
4060C49C
4060E560
40610625
406126E9
406147AE
40616873
40618937
4061A9FC
4061CAC1
4061EB85
40620C4A
40622D0E
40624DD3
40626E98
40628F5C
4062B021
4062D0E5
4062F1AA
4063126F
40633333
406353F8
406374BC
40639581
4063B646
4063D70A
4063F7CF
40641893
40643958
40645A1D
40647AE1
40649BA6
4064BC6A
4064DD2F
4064FDF4
40651EB8
40653F7D
40656042
40658106
4065A1CB
4065C28F
4065E354
40660419
406624DD
406645A2
40666666
4066872B
4066A7F0
4066C8B4
4066E979
40670A3D
40672B02
40674BC7
40676C8B
40678D50
4067AE14
4067CED9
4067EF9E
40681062
40683127
406851EC
406872B0
40689375
4068B439
4068D4FE
4068F5C3
40691687
4069374C
40695810
406978D5
4069999A
4069BA5E
4069DB23
4069FBE7
406A1CAC
406A3D71
406A5E35
406A7EFA
406A9FBE
406AC083
406AE148
406B020C
406B22D1
406B4396
406B645A
406B851F
406BA5E3
406BC6A8
406BE76D
406C0831
406C28F6
406C49BA
406C6A7F
406C8B44
406CAC08
406CCCCD
406CED91
406D0E56
406D2F1B
406D4FDF
406D70A4
406D9168
406DB22D
406DD2F2
406DF3B6
406E147B
406E353F
406E5604
406E76C9
406E978D
406EB852
406ED917
406EF9DB
406F1AA0
406F3B64
406F5C29
406F7CEE
406F9DB2
406FBE77
406FDF3B
40700000
407020C5
40704189
4070624E
40708312
4070A3D7
4070C49C
4070E560
40710625
407126E9
407147AE
40716873
40718937
4071A9FC
4071CAC1
4071EB85
40720C4A
40722D0E
40724DD3
40726E98
40728F5C
4072B021
4072D0E5
4072F1AA
4073126F
40733333
407353F8
407374BC
40739581
4073B646
4073D70A
4073F7CF
40741893
40743958
40745A1D
40747AE1
40749BA6
4074BC6A
4074DD2F
4074FDF4
40751EB8
40753F7D
40756042
40758106
4075A1CB
4075C28F
4075E354
40760419
407624DD
407645A2
40766666
4076872B
4076A7F0
4076C8B4
4076E979
40770A3D
40772B02
40774BC7
40776C8B
40778D50
4077AE14
4077CED9
4077EF9E
40781062
40783127
407851EC
407872B0
40789375
4078B439
4078D4FE
4078F5C3
40791687
4079374C
40795810
407978D5
4079999A
4079BA5E
4079DB23
4079FBE7
407A1CAC
407A3D71
407A5E35
407A7EFA
407A9FBE
407AC083
407AE148
407B020C
407B22D1
407B4396
407B645A
407B851F
407BA5E3
407BC6A8
407BE76D
407C0831
407C28F6
407C49BA
407C6A7F
407C8B44
407CAC08
407CCCCD
407CED91
407D0E56
407D2F1B
407D4FDF
407D70A4
407D9168
407DB22D
407DD2F2
407DF3B6
407E147B
407E353F
407E5604
407E76C9
407E978D
407EB852
407ED917
407EF9DB
407F1AA0
407F3B64
407F5C29
407F7CEE
407F9DB2
407FBE77
407FDF3B
40800000
40801062
408020C5
40803127
40804189
408051EC
4080624E
408072B0
40808312
40809375
4080A3D7
4080B439
4080C49C
4080D4FE
4080E560
4080F5C3
40810625
40811687
408126E9
4081374C
408147AE
40815810
40816873
408178D5
40818937
4081999A
4081A9FC
4081BA5E
4081CAC1
4081DB23
4081EB85
4081FBE7
40820C4A
40821CAC
40822D0E
40823D71
40824DD3
40825E35
40826E98
40827EFA
40828F5C
40829FBE
4082B021
4082C083
4082D0E5
4082E148
4082F1AA
4083020C
4083126F
408322D1
40833333
40834396
408353F8
4083645A
408374BC
4083851F
40839581
4083A5E3
4083B646
4083C6A8
4083D70A
4083E76D
4083F7CF
40840831
40841893
408428F6
40843958
408449BA
40845A1D
40846A7F
40847AE1
40848B44
40849BA6
4084AC08
4084BC6A
4084CCCD
4084DD2F
4084ED91
4084FDF4
40850E56
40851EB8
40852F1B
40853F7D
40854FDF
40856042
408570A4
40858106
40859168
4085A1CB
4085B22D
4085C28F
4085D2F2
4085E354
4085F3B6
40860419
4086147B
408624DD
4086353F
408645A2
40865604
40866666
408676C9
4086872B
4086978D
4086A7F0
4086B852
4086C8B4
4086D917
4086E979
4086F9DB
40870A3D
40871AA0
40872B02
40873B64
40874BC7
40875C29
40876C8B
40877CEE
40878D50
40879DB2
4087AE14
4087BE77
4087CED9
4087DF3B
4087EF9E
40880000
40881062
408820C5
40883127
40884189
408851EC
4088624E
408872B0
40888312
40889375
4088A3D7
4088B439
4088C49C
4088D4FE
4088E560
4088F5C3
40890625
40891687
408926E9
4089374C
408947AE
40895810
40896873
408978D5
40898937
4089999A
4089A9FC
4089BA5E
4089CAC1
4089DB23
4089EB85
4089FBE7
408A0C4A
408A1CAC
408A2D0E
408A3D71
408A4DD3
408A5E35
408A6E98
408A7EFA
408A8F5C
408A9FBE
408AB021
408AC083
408AD0E5
408AE148
408AF1AA
408B020C
408B126F
408B22D1
408B3333
408B4396
408B53F8
408B645A
408B74BC
408B851F
408B9581
408BA5E3
408BB646
408BC6A8
408BD70A
408BE76D
408BF7CF
408C0831
408C1893
408C28F6
408C3958
408C49BA
408C5A1D
408C6A7F
408C7AE1
408C8B44
408C9BA6
408CAC08
408CBC6A
408CCCCD
408CDD2F
408CED91
408CFDF4
408D0E56
408D1EB8
408D2F1B
408D3F7D
408D4FDF
408D6042
408D70A4
408D8106
408D9168
408DA1CB
408DB22D
408DC28F
408DD2F2
408DE354
408DF3B6
408E0419
408E147B
408E24DD
408E353F
408E45A2
408E5604
408E6666
408E76C9
408E872B
408E978D
408EA7F0
408EB852
408EC8B4
408ED917
408EE979
408EF9DB
408F0A3D
408F1AA0
408F2B02
408F3B64
408F4BC7
408F5C29
408F6C8B
408F7CEE
408F8D50
408F9DB2
408FAE14
408FBE77
408FCED9
408FDF3B
408FEF9E
40900000
40901062
409020C5
40903127
40904189
409051EC
4090624E
409072B0
40908312
40909375
4090A3D7
4090B439
4090C49C
4090D4FE
4090E560
4090F5C3
40910625
40911687
409126E9
4091374C
409147AE
40915810
40916873
409178D5
40918937
4091999A
4091A9FC
4091BA5E
4091CAC1
4091DB23
4091EB85
4091FBE7
40920C4A
40921CAC
40922D0E
40923D71
40924DD3
40925E35
40926E98
40927EFA
40928F5C
40929FBE
4092B021
4092C083
4092D0E5
4092E148
4092F1AA
4093020C
4093126F
409322D1
40933333
40934396
409353F8
4093645A
409374BC
4093851F
40939581
4093A5E3
4093B646
