41C3E148
41C40A3D
41C43333
41C45C29
41C4851F
41C4AE14
41C4D70A
41C50000
41C528F6
41C551EC
41C57AE1
41C5A3D7
41C5CCCD
41C5F5C3
41C61EB8
41C647AE
41C670A4
41C6999A
41C6C28F
41C6EB85
41C7147B
41C73D71
41C76666
41C78F5C
41C7B852
41C7E148
41C80A3D
41C83333
41C85C29
41C8851F
41C8AE14
41C8D70A
41C90000
41C928F6
41C951EC
41C97AE1
41C9A3D7
41C9CCCD
41C9F5C3
41CA1EB8
41CA47AE
41CA70A4
41CA999A
41CAC28F
41CAEB85
41CB147B
41CB3D71
41CB6666
41CB8F5C
41CBB852
41CBE148
41CC0A3D
41CC3333
41CC5C29
41CC851F
41CCAE14
41CCD70A
41CD0000
41CD28F6
41CD51EC
41CD7AE1
41CDA3D7
41CDCCCD
41CDF5C3
41CE1EB8
41CE47AE
41CE70A4
41CE999A
41CEC28F
41CEEB85
41CF147B
41CF3D71
41DAEB85
41DB147B
41DB3D71
41DB6666
41DB8F5C
41DBB852
41DBE148
41DC0A3D
41DC3333
41DC5C29
41DC851F
41DCAE14
41DCD70A
41DD0000
41DD28F6
41DD51EC
41DD7AE1
41DDA3D7
41DDCCCD
41DDF5C3
41DE1EB8
41DE47AE
41DE70A4
41DE999A
41DEC28F
41DEEB85
41DF147B
41DF3D71
41DF6666
41DF8F5C
41DFB852
41DFE148
41E00A3D
41E03333
41E05C29
41E0851F
41E0AE14
41E0D70A
41E10000
41E128F6
41E151EC
41E17AE1
41E1A3D7
41E1CCCD
41E1F5C3
41E21EB8
41E247AE
41E270A4
41E2999A
41E2C28F
41E2EB85
41E3147B
41E33D71
41E36666
41E38F5C
41E3B852
41E3E148
41E40A3D
41E43333
41E45C29
41E4851F
41E4AE14
41E4D70A
41E50000
41E528F6
41E551EC
41E57AE1
41E5A3D7
41E5CCCD
41E5F5C3
41E61EB8
41E647AE
41F1F5C3
41F21EB8
41F247AE
41F270A4
41F2999A
41F2C28F
41F2EB85
41F3147B
41F33D71
41F36666
41F38F5C
41F3B852
41F3E148
41F40A3D
41F43333
41F45C29
41F4851F
41F4AE14
41F4D70A
41F50000
41F528F6
41F551EC
41F57AE1
41F5A3D7
41F5CCCD
41F5F5C3
41F61EB8
41F647AE
41F670A4
41F6999A
41F6C28F
41F6EB85
41F7147B
41F73D71
41F76666
41F78F5C
41F7B852
41F7E148
41F80A3D
41F83333
41F85C29
41F8851F
41F8AE14
41F8D70A
41F90000
41F928F6
41F951EC
41F97AE1
41F9A3D7
41F9CCCD
41F9F5C3
41FA1EB8
41FA47AE
41FA70A4
41FA999A
41FAC28F
41FAEB85
41FB147B
41FB3D71
41FB6666
41FB8F5C
41FBB852
41FBE148
41FC0A3D
41FC3333
41FC5C29
41FC851F
41FCAE14
41FCD70A
41FD0000
41FD28F6
41FD51EC
42048000
4204947B
4204A8F6
4204BD71
4204D1EC
4204E666
4204FAE1
42050F5C
420523D7
42053852
42054CCD
42056148
420575C3
42058A3D
42059EB8
4205B333
4205C7AE
4205DC29
4205F0A4
4206051F
4206199A
42062E14
4206428F
4206570A
42066B85
42068000
4206947B
4206A8F6
4206BD71
4206D1EC
4206E666
4206FAE1
42070F5C
420723D7
42073852
42074CCD
42076148
420775C3
42078A3D
42079EB8
4207B333
4207C7AE
4207DC29
4207F0A4
4208051F
4208199A
42082E14
4208428F
4208570A
42086B85
42088000
4208947B
4208A8F6
4208BD71
4208D1EC
4208E666
4208FAE1
42090F5C
420923D7
42093852
42094CCD
42096148
420975C3
42098A3D
42099EB8
4209B333
4209C7AE
4209DC29
4209F0A4
420A051F
420A199A
420A2E14
4210051F
4210199A
42102E14
4210428F
4210570A
42106B85
42108000
4210947B
4210A8F6
4210BD71
4210D1EC
4210E666
4210FAE1
42110F5C
421123D7
42113852
42114CCD
42116148
421175C3
42118A3D
42119EB8
4211B333
4211C7AE
4211DC29
4211F0A4
4212051F
4212199A
42122E14
4212428F
4212570A
42126B85
42128000
4212947B
4212A8F6
4212BD71
4212D1EC
4212E666
4212FAE1
42130F5C
421323D7
42133852
42134CCD
42136148
421375C3
42138A3D
42139EB8
4213B333
4213C7AE
4213DC29
4213F0A4
4214051F
4214199A
42142E14
4214428F
4214570A
42146B85
42148000
4214947B
4214A8F6
4214BD71
4214D1EC
4214E666
4214FAE1
42150F5C
421523D7
42153852
42154CCD
42156148
421575C3
42158A3D
42159EB8
4215B333
421B8A3D
421B9EB8
421BB333
421BC7AE
421BDC29
421BF0A4
421C051F
421C199A
421C2E14
421C428F
421C570A
421C6B85
421C8000
421C947B
421CA8F6
421CBD71
421CD1EC
421CE666
421CFAE1
421D0F5C
421D23D7
421D3852
421D4CCD
421D6148
421D75C3
421D8A3D
421D9EB8
421DB333
421DC7AE
421DDC29
421DF0A4
421E051F
421E199A
421E2E14
421E428F
421E570A
421E6B85
421E8000
421E947B
421EA8F6
421EBD71
421ED1EC
421EE666
421EFAE1
421F0F5C
421F23D7
421F3852
421F4CCD
421F6148
421F75C3
421F8A3D
421F9EB8
421FB333
421FC7AE
421FDC29
421FF0A4
4220051F
4220199A
42202E14
4220428F
4220570A
42206B85
42208000
4220947B
4220A8F6
4220BD71
4220D1EC
4220E666
4220FAE1
42210F5C
422123D7
42213852
42270F5C
422723D7
42273852
42274CCD
42276148
422775C3
42278A3D
42279EB8
4227B333
4227C7AE
4227DC29
4227F0A4
4228051F
4228199A
42282E14
4228428F
4228570A
42286B85
42288000
4228947B
4228A8F6
4228BD71
4228D1EC
4228E666
4228FAE1
42290F5C
422923D7
42293852
42294CCD
42296148
422975C3
42298A3D
42299EB8
4229B333
4229C7AE
4229DC29
4229F0A4
422A051F
422A199A
422A2E14
422A428F
422A570A
422A6B85
422A8000
422A947B
422AA8F6
422ABD71
422AD1EC
422AE666
422AFAE1
422B0F5C
422B23D7
422B3852
422B4CCD
422B6148
422B75C3
422B8A3D
422B9EB8
422BB333
422BC7AE
422BDC29
422BF0A4
422C051F
422C199A
422C2E14
422C428F
422C570A
422C6B85
422C8000
422C947B
422CA8F6
422CBD71
4232947B
4232A8F6
4232BD71
4232D1EC
4232E666
4232FAE1
42330F5C
423323D7
42333852
42334CCD
42336148
423375C3
42338A3D
42339EB8
4233B333
4233C7AE
4233DC29
4233F0A4
4234051F
4234199A
42342E14
4234428F
4234570A
42346B85
42348000
4234947B
4234A8F6
4234BD71
4234D1EC
4234E666
4234FAE1
42350F5C
423523D7
42353852
42354CCD
42356148
423575C3
42358A3D
42359EB8
4235B333
4235C7AE
4235DC29
4235F0A4
4236051F
4236199A
42362E14
4236428F
4236570A
42366B85
42368000
4236947B
4236A8F6
4236BD71
4236D1EC
4236E666
4236FAE1
42370F5C
423723D7
42373852
42374CCD
42376148
423775C3
42378A3D
42379EB8
4237B333
4237C7AE
4237DC29
4237F0A4
4238051F
4238199A
42382E14
4238428F
