41C3EB85
41C4147B
41C43D71
41C46666
41C48F5C
41C4B852
41C4E148
41C50A3D
41C53333
41C55C29
41C5851F
41C5AE14
41C5D70A
41C60000
41C628F6
41C651EC
41C67AE1
41C6A3D7
41C6CCCD
41C6F5C3
41C71EB8
41C747AE
41C770A4
41C7999A
41C7C28F
41C7EB85
41C8147B
41C83D71
41C86666
41C88F5C
41C8B852
41C8E148
41C90A3D
41C93333
41C95C29
41C9851F
41C9AE14
41C9D70A
41CA0000
41CA28F6
41CA51EC
41CA7AE1
41CAA3D7
41CACCCD
41CAF5C3
41CB1EB8
41CB47AE
41CB70A4
41CB999A
41CBC28F
41CBEB85
41CC147B
41CC3D71
41CC6666
41CC8F5C
41CCB852
41CCE148
41CD0A3D
41CD3333
41CD5C29
41CD851F
41CDAE14
41CDD70A
41CE0000
41CE28F6
41CE51EC
41CE7AE1
41CEA3D7
41CECCCD
41CEF5C3
41CF1EB8
41CF47AE
41DAF5C3
41DB1EB8
41DB47AE
41DB70A4
41DB999A
41DBC28F
41DBEB85
41DC147B
41DC3D71
41DC6666
41DC8F5C
41DCB852
41DCE148
41DD0A3D
41DD3333
41DD5C29
41DD851F
41DDAE14
41DDD70A
41DE0000
41DE28F6
41DE51EC
41DE7AE1
41DEA3D7
41DECCCD
41DEF5C3
41DF1EB8
41DF47AE
41DF70A4
41DF999A
41DFC28F
41DFEB85
41E0147B
41E03D71
41E06666
41E08F5C
41E0B852
41E0E148
41E10A3D
41E13333
41E15C29
41E1851F
41E1AE14
41E1D70A
41E20000
41E228F6
41E251EC
41E27AE1
41E2A3D7
41E2CCCD
41E2F5C3
41E31EB8
41E347AE
41E370A4
41E3999A
41E3C28F
41E3EB85
41E4147B
41E43D71
41E46666
41E48F5C
41E4B852
41E4E148
41E50A3D
41E53333
41E55C29
41E5851F
41E5AE14
41E5D70A
41E60000
41E628F6
41E651EC
41F20000
41F228F6
41F251EC
41F27AE1
41F2A3D7
41F2CCCD
41F2F5C3
41F31EB8
41F347AE
41F370A4
41F3999A
41F3C28F
41F3EB85
41F4147B
41F43D71
41F46666
41F48F5C
41F4B852
41F4E148
41F50A3D
41F53333
41F55C29
41F5851F
41F5AE14
41F5D70A
41F60000
41F628F6
41F651EC
41F67AE1
41F6A3D7
41F6CCCD
41F6F5C3
41F71EB8
41F747AE
41F770A4
41F7999A
41F7C28F
41F7EB85
41F8147B
41F83D71
41F86666
41F88F5C
41F8B852
41F8E148
41F90A3D
41F93333
41F95C29
41F9851F
41F9AE14
41F9D70A
41FA0000
41FA28F6
41FA51EC
41FA7AE1
41FAA3D7
41FACCCD
41FAF5C3
41FB1EB8
41FB47AE
41FB70A4
41FB999A
41FBC28F
41FBEB85
41FC147B
41FC3D71
41FC6666
41FC8F5C
41FCB852
41FCE148
41FD0A3D
41FD3333
41FD5C29
4204851F
4204999A
4204AE14
4204C28F
4204D70A
4204EB85
42050000
4205147B
420528F6
42053D71
420551EC
42056666
42057AE1
42058F5C
4205A3D7
4205B852
4205CCCD
4205E148
4205F5C3
42060A3D
42061EB8
42063333
420647AE
42065C29
420670A4
4206851F
4206999A
4206AE14
4206C28F
4206D70A
4206EB85
42070000
4207147B
420728F6
42073D71
420751EC
42076666
42077AE1
42078F5C
4207A3D7
4207B852
4207CCCD
4207E148
4207F5C3
42080A3D
42081EB8
42083333
420847AE
42085C29
420870A4
4208851F
4208999A
4208AE14
4208C28F
4208D70A
4208EB85
42090000
4209147B
420928F6
42093D71
420951EC
42096666
42097AE1
42098F5C
4209A3D7
4209B852
4209CCCD
4209E148
4209F5C3
420A0A3D
420A1EB8
420A3333
42100A3D
42101EB8
42103333
421047AE
42105C29
421070A4
4210851F
4210999A
4210AE14
4210C28F
4210D70A
4210EB85
42110000
4211147B
421128F6
42113D71
421151EC
42116666
42117AE1
42118F5C
4211A3D7
4211B852
4211CCCD
4211E148
4211F5C3
42120A3D
42121EB8
42123333
421247AE
42125C29
421270A4
4212851F
4212999A
4212AE14
4212C28F
4212D70A
4212EB85
42130000
4213147B
421328F6
42133D71
421351EC
42136666
42137AE1
42138F5C
4213A3D7
4213B852
4213CCCD
4213E148
4213F5C3
42140A3D
42141EB8
42143333
421447AE
42145C29
421470A4
4214851F
4214999A
4214AE14
4214C28F
4214D70A
4214EB85
42150000
4215147B
421528F6
42153D71
421551EC
42156666
42157AE1
42158F5C
4215A3D7
4215B852
421B8F5C
421BA3D7
421BB852
421BCCCD
421BE148
421BF5C3
421C0A3D
421C1EB8
421C3333
421C47AE
421C5C29
421C70A4
421C851F
421C999A
421CAE14
421CC28F
421CD70A
421CEB85
421D0000
421D147B
421D28F6
421D3D71
421D51EC
421D6666
421D7AE1
421D8F5C
421DA3D7
421DB852
421DCCCD
421DE148
421DF5C3
421E0A3D
421E1EB8
421E3333
421E47AE
421E5C29
421E70A4
421E851F
421E999A
421EAE14
421EC28F
421ED70A
421EEB85
421F0000
421F147B
421F28F6
421F3D71
421F51EC
421F6666
421F7AE1
421F8F5C
421FA3D7
421FB852
421FCCCD
421FE148
421FF5C3
42200A3D
42201EB8
42203333
422047AE
42205C29
422070A4
4220851F
4220999A
4220AE14
4220C28F
4220D70A
4220EB85
42210000
4221147B
422128F6
42213D71
4227147B
422728F6
42273D71
422751EC
42276666
42277AE1
42278F5C
4227A3D7
4227B852
4227CCCD
4227E148
4227F5C3
42280A3D
42281EB8
42283333
422847AE
42285C29
422870A4
4228851F
4228999A
4228AE14
4228C28F
4228D70A
4228EB85
42290000
4229147B
422928F6
42293D71
422951EC
42296666
42297AE1
42298F5C
4229A3D7
4229B852
4229CCCD
4229E148
4229F5C3
422A0A3D
422A1EB8
422A3333
422A47AE
422A5C29
422A70A4
422A851F
422A999A
422AAE14
422AC28F
422AD70A
422AEB85
422B0000
422B147B
422B28F6
422B3D71
422B51EC
422B6666
422B7AE1
422B8F5C
422BA3D7
422BB852
422BCCCD
422BE148
422BF5C3
422C0A3D
422C1EB8
422C3333
422C47AE
422C5C29
422C70A4
422C851F
422C999A
422CAE14
422CC28F
4232999A
4232AE14
4232C28F
4232D70A
4232EB85
42330000
4233147B
423328F6
42333D71
423351EC
42336666
42337AE1
42338F5C
4233A3D7
4233B852
4233CCCD
4233E148
4233F5C3
42340A3D
42341EB8
42343333
423447AE
42345C29
423470A4
4234851F
4234999A
4234AE14
4234C28F
4234D70A
4234EB85
42350000
4235147B
423528F6
42353D71
423551EC
42356666
42357AE1
42358F5C
4235A3D7
4235B852
4235CCCD
4235E148
4235F5C3
42360A3D
42361EB8
42363333
423647AE
42365C29
423670A4
4236851F
4236999A
4236AE14
4236C28F
4236D70A
4236EB85
42370000
4237147B
423728F6
42373D71
423751EC
42376666
42377AE1
42378F5C
4237A3D7
4237B852
4237CCCD
4237E148
4237F5C3
42380A3D
42381EB8
42383333
423847AE
