41B85C29
41B8851F
41B8AE14
41B8D70A
41B90000
41B928F6
41B951EC
41B97AE1
41B9A3D7
41B9CCCD
41B9F5C3
41BA1EB8
41BA47AE
41BA70A4
41BA999A
41BAC28F
41BAEB85
41BB147B
41BB3D71
41BB6666
41BB8F5C
41BBB852
41BBE148
41BC0A3D
41BC3333
41BC5C29
41BC851F
41BCAE14
41BCD70A
41BD0000
41BD28F6
41BD51EC
41BD7AE1
41BDA3D7
41BDCCCD
41BDF5C3
41BE1EB8
41BE47AE
41BE70A4
41BE999A
41BEC28F
41BEEB85
41BF147B
41BF3D71
41BF6666
41BF8F5C
41BFB852
41BFE148
41C00A3D
41C03333
41C05C29
41C0851F
41C0AE14
41C0D70A
41C10000
41C128F6
41C151EC
41C17AE1
41C1A3D7
41C1CCCD
41C1F5C3
41C21EB8
41C247AE
41C270A4
41C2999A
41C2C28F
41C2EB85
41C3147B
41C33D71
41C36666
41C38F5C
41C3B852
41CF6666
41CF8F5C
41CFB852
41CFE148
41D00A3D
41D03333
41D05C29
41D0851F
41D0AE14
41D0D70A
41D10000
41D128F6
41D151EC
41D17AE1
41D1A3D7
41D1CCCD
41D1F5C3
41D21EB8
41D247AE
41D270A4
41D2999A
41D2C28F
41D2EB85
41D3147B
41D33D71
41D36666
41D38F5C
41D3B852
41D3E148
41D40A3D
41D43333
41D45C29
41D4851F
41D4AE14
41D4D70A
41D50000
41D528F6
41D551EC
41D57AE1
41D5A3D7
41D5CCCD
41D5F5C3
41D61EB8
41D647AE
41D670A4
41D6999A
41D6C28F
41D6EB85
41D7147B
41D73D71
41D76666
41D78F5C
41D7B852
41D7E148
41D80A3D
41D83333
41D85C29
41D8851F
41D8AE14
41D8D70A
41D90000
41D928F6
41D951EC
41D97AE1
41D9A3D7
41D9CCCD
41D9F5C3
41DA1EB8
41DA47AE
41DA70A4
41DA999A
41DAC28F
41E670A4
41E6999A
41E6C28F
41E6EB85
41E7147B
41E73D71
41E76666
41E78F5C
41E7B852
41E7E148
41E80A3D
41E83333
41E85C29
41E8851F
41E8AE14
41E8D70A
41E90000
41E928F6
41E951EC
41E97AE1
41E9A3D7
41E9CCCD
41E9F5C3
41EA1EB8
41EA47AE
41EA70A4
41EA999A
41EAC28F
41EAEB85
41EB147B
41EB3D71
41EB6666
41EB8F5C
41EBB852
41EBE148
41EC0A3D
41EC3333
41EC5C29
41EC851F
41ECAE14
41ECD70A
41ED0000
41ED28F6
41ED51EC
41ED7AE1
41EDA3D7
41EDCCCD
41EDF5C3
41EE1EB8
41EE47AE
41EE70A4
41EE999A
41EEC28F
41EEEB85
41EF147B
41EF3D71
41EF6666
41EF8F5C
41EFB852
41EFE148
41F00A3D
41F03333
41F05C29
41F0851F
41F0AE14
41F0D70A
41F10000
41F128F6
41F151EC
41F17AE1
41F1A3D7
41F1CCCD
41FD7AE1
41FDA3D7
41FDCCCD
41FDF5C3
41FE1EB8
41FE47AE
41FE70A4
41FE999A
41FEC28F
41FEEB85
41FF147B
41FF3D71
41FF6666
41FF8F5C
41FFB852
41FFE148
4200051F
4200199A
42002E14
4200428F
4200570A
42006B85
42008000
4200947B
4200A8F6
4200BD71
4200D1EC
4200E666
4200FAE1
42010F5C
420123D7
42013852
42014CCD
42016148
420175C3
42018A3D
42019EB8
4201B333
4201C7AE
4201DC29
4201F0A4
4202051F
4202199A
42022E14
4202428F
4202570A
42026B85
42028000
4202947B
4202A8F6
4202BD71
4202D1EC
4202E666
4202FAE1
42030F5C
420323D7
42033852
42034CCD
42036148
420375C3
42038A3D
42039EB8
4203B333
4203C7AE
4203DC29
4203F0A4
4204051F
4204199A
42042E14
4204428F
4204570A
42046B85
420A428F
420A570A
420A6B85
420A8000
420A947B
420AA8F6
420ABD71
420AD1EC
420AE666
420AFAE1
420B0F5C
420B23D7
420B3852
420B4CCD
420B6148
420B75C3
420B8A3D
420B9EB8
420BB333
420BC7AE
420BDC29
420BF0A4
420C051F
420C199A
420C2E14
420C428F
420C570A
420C6B85
420C8000
420C947B
420CA8F6
420CBD71
420CD1EC
420CE666
420CFAE1
420D0F5C
420D23D7
420D3852
420D4CCD
420D6148
420D75C3
420D8A3D
420D9EB8
420DB333
420DC7AE
420DDC29
420DF0A4
420E051F
420E199A
420E2E14
420E428F
420E570A
420E6B85
420E8000
420E947B
420EA8F6
420EBD71
420ED1EC
420EE666
420EFAE1
420F0F5C
420F23D7
420F3852
420F4CCD
420F6148
420F75C3
420F8A3D
420F9EB8
420FB333
420FC7AE
420FDC29
420FF0A4
4215C7AE
4215DC29
4215F0A4
4216051F
4216199A
42162E14
4216428F
4216570A
42166B85
42168000
4216947B
4216A8F6
4216BD71
4216D1EC
4216E666
4216FAE1
42170F5C
421723D7
42173852
42174CCD
42176148
421775C3
42178A3D
42179EB8
4217B333
4217C7AE
4217DC29
4217F0A4
4218051F
4218199A
42182E14
4218428F
4218570A
42186B85
42188000
4218947B
4218A8F6
4218BD71
4218D1EC
4218E666
4218FAE1
42190F5C
421923D7
42193852
42194CCD
42196148
421975C3
42198A3D
42199EB8
4219B333
4219C7AE
4219DC29
4219F0A4
421A051F
421A199A
421A2E14
421A428F
421A570A
421A6B85
421A8000
421A947B
421AA8F6
421ABD71
421AD1EC
421AE666
421AFAE1
421B0F5C
421B23D7
421B3852
421B4CCD
421B6148
421B75C3
42214CCD
42216148
422175C3
42218A3D
42219EB8
4221B333
4221C7AE
4221DC29
4221F0A4
4222051F
4222199A
42222E14
4222428F
4222570A
42226B85
42228000
4222947B
4222A8F6
4222BD71
4222D1EC
4222E666
4222FAE1
42230F5C
422323D7
42233852
42234CCD
42236148
422375C3
42238A3D
42239EB8
4223B333
4223C7AE
4223DC29
4223F0A4
4224051F
4224199A
42242E14
4224428F
4224570A
42246B85
42248000
4224947B
4224A8F6
4224BD71
4224D1EC
4224E666
4224FAE1
42250F5C
422523D7
42253852
42254CCD
42256148
422575C3
42258A3D
42259EB8
4225B333
4225C7AE
4225DC29
4225F0A4
4226051F
4226199A
42262E14
4226428F
4226570A
42266B85
42268000
4226947B
4226A8F6
4226BD71
4226D1EC
4226E666
4226FAE1
422CD1EC
422CE666
422CFAE1
422D0F5C
422D23D7
422D3852
422D4CCD
422D6148
422D75C3
422D8A3D
422D9EB8
422DB333
422DC7AE
422DDC29
422DF0A4
422E051F
422E199A
422E2E14
422E428F
422E570A
422E6B85
422E8000
422E947B
422EA8F6
422EBD71
422ED1EC
422EE666
422EFAE1
422F0F5C
422F23D7
422F3852
422F4CCD
422F6148
422F75C3
422F8A3D
422F9EB8
422FB333
422FC7AE
422FDC29
422FF0A4
4230051F
4230199A
42302E14
4230428F
4230570A
42306B85
42308000
4230947B
4230A8F6
4230BD71
4230D1EC
4230E666
4230FAE1
42310F5C
423123D7
42313852
42314CCD
42316148
423175C3
42318A3D
42319EB8
4231B333
4231C7AE
4231DC29
4231F0A4
4232051F
4232199A
42322E14
4232428F
4232570A
42326B85
42328000
