41B86666
41B88F5C
41B8B852
41B8E148
41B90A3D
41B93333
41B95C29
41B9851F
41B9AE14
41B9D70A
41BA0000
41BA28F6
41BA51EC
41BA7AE1
41BAA3D7
41BACCCD
41BAF5C3
41BB1EB8
41BB47AE
41BB70A4
41BB999A
41BBC28F
41BBEB85
41BC147B
41BC3D71
41BC6666
41BC8F5C
41BCB852
41BCE148
41BD0A3D
41BD3333
41BD5C29
41BD851F
41BDAE14
41BDD70A
41BE0000
41BE28F6
41BE51EC
41BE7AE1
41BEA3D7
41BECCCD
41BEF5C3
41BF1EB8
41BF47AE
41BF70A4
41BF999A
41BFC28F
41BFEB85
41C0147B
41C03D71
41C06666
41C08F5C
41C0B852
41C0E148
41C10A3D
41C13333
41C15C29
41C1851F
41C1AE14
41C1D70A
41C20000
41C228F6
41C251EC
41C27AE1
41C2A3D7
41C2CCCD
41C2F5C3
41C31EB8
41C347AE
41C370A4
41C3999A
41C3C28F
41CF70A4
41CF999A
41CFC28F
41CFEB85
41D0147B
41D03D71
41D06666
41D08F5C
41D0B852
41D0E148
41D10A3D
41D13333
41D15C29
41D1851F
41D1AE14
41D1D70A
41D20000
41D228F6
41D251EC
41D27AE1
41D2A3D7
41D2CCCD
41D2F5C3
41D31EB8
41D347AE
41D370A4
41D3999A
41D3C28F
41D3EB85
41D4147B
41D43D71
41D46666
41D48F5C
41D4B852
41D4E148
41D50A3D
41D53333
41D55C29
41D5851F
41D5AE14
41D5D70A
41D60000
41D628F6
41D651EC
41D67AE1
41D6A3D7
41D6CCCD
41D6F5C3
41D71EB8
41D747AE
41D770A4
41D7999A
41D7C28F
41D7EB85
41D8147B
41D83D71
41D86666
41D88F5C
41D8B852
41D8E148
41D90A3D
41D93333
41D95C29
41D9851F
41D9AE14
41D9D70A
41DA0000
41DA28F6
41DA51EC
41DA7AE1
41DAA3D7
41DACCCD
41E67AE1
41E6A3D7
41E6CCCD
41E6F5C3
41E71EB8
41E747AE
41E770A4
41E7999A
41E7C28F
41E7EB85
41E8147B
41E83D71
41E86666
41E88F5C
41E8B852
41E8E148
41E90A3D
41E93333
41E95C29
41E9851F
41E9AE14
41E9D70A
41EA0000
41EA28F6
41EA51EC
41EA7AE1
41EAA3D7
41EACCCD
41EAF5C3
41EB1EB8
41EB47AE
41EB70A4
41EB999A
41EBC28F
41EBEB85
41EC147B
41EC3D71
41EC6666
41EC8F5C
41ECB852
41ECE148
41ED0A3D
41ED3333
41ED5C29
41ED851F
41EDAE14
41EDD70A
41EE0000
41EE28F6
41EE51EC
41EE7AE1
41EEA3D7
41EECCCD
41EEF5C3
41EF1EB8
41EF47AE
41EF70A4
41EF999A
41EFC28F
41EFEB85
41F0147B
41F03D71
41F06666
41F08F5C
41F0B852
41F0E148
41F10A3D
41F13333
41F15C29
41F1851F
41F1AE14
41F1D70A
41FD851F
41FDAE14
41FDD70A
41FE0000
41FE28F6
41FE51EC
41FE7AE1
41FEA3D7
41FECCCD
41FEF5C3
41FF1EB8
41FF47AE
41FF70A4
41FF999A
41FFC28F
41FFEB85
42000A3D
42001EB8
42003333
420047AE
42005C29
420070A4
4200851F
4200999A
4200AE14
4200C28F
4200D70A
4200EB85
42010000
4201147B
420128F6
42013D71
420151EC
42016666
42017AE1
42018F5C
4201A3D7
4201B852
4201CCCD
4201E148
4201F5C3
42020A3D
42021EB8
42023333
420247AE
42025C29
420270A4
4202851F
4202999A
4202AE14
4202C28F
4202D70A
4202EB85
42030000
4203147B
420328F6
42033D71
420351EC
42036666
42037AE1
42038F5C
4203A3D7
4203B852
4203CCCD
4203E148
4203F5C3
42040A3D
42041EB8
42043333
420447AE
42045C29
420470A4
420A47AE
420A5C29
420A70A4
420A851F
420A999A
420AAE14
420AC28F
420AD70A
420AEB85
420B0000
420B147B
420B28F6
420B3D71
420B51EC
420B6666
420B7AE1
420B8F5C
420BA3D7
420BB852
420BCCCD
420BE148
420BF5C3
420C0A3D
420C1EB8
420C3333
420C47AE
420C5C29
420C70A4
420C851F
420C999A
420CAE14
420CC28F
420CD70A
420CEB85
420D0000
420D147B
420D28F6
420D3D71
420D51EC
420D6666
420D7AE1
420D8F5C
420DA3D7
420DB852
420DCCCD
420DE148
420DF5C3
420E0A3D
420E1EB8
420E3333
420E47AE
420E5C29
420E70A4
420E851F
420E999A
420EAE14
420EC28F
420ED70A
420EEB85
420F0000
420F147B
420F28F6
420F3D71
420F51EC
420F6666
420F7AE1
420F8F5C
420FA3D7
420FB852
420FCCCD
420FE148
420FF5C3
4215CCCD
4215E148
4215F5C3
42160A3D
42161EB8
42163333
421647AE
42165C29
421670A4
4216851F
4216999A
4216AE14
4216C28F
4216D70A
4216EB85
42170000
4217147B
421728F6
42173D71
421751EC
42176666
42177AE1
42178F5C
4217A3D7
4217B852
4217CCCD
4217E148
4217F5C3
42180A3D
42181EB8
42183333
421847AE
42185C29
421870A4
4218851F
4218999A
4218AE14
4218C28F
4218D70A
4218EB85
42190000
4219147B
421928F6
42193D71
421951EC
42196666
42197AE1
42198F5C
4219A3D7
4219B852
4219CCCD
4219E148
4219F5C3
421A0A3D
421A1EB8
421A3333
421A47AE
421A5C29
421A70A4
421A851F
421A999A
421AAE14
421AC28F
421AD70A
421AEB85
421B0000
421B147B
421B28F6
421B3D71
421B51EC
421B6666
421B7AE1
422151EC
42216666
42217AE1
42218F5C
4221A3D7
4221B852
4221CCCD
4221E148
4221F5C3
42220A3D
42221EB8
42223333
422247AE
42225C29
422270A4
4222851F
4222999A
4222AE14
4222C28F
4222D70A
4222EB85
42230000
4223147B
422328F6
42233D71
422351EC
42236666
42237AE1
42238F5C
4223A3D7
4223B852
4223CCCD
4223E148
4223F5C3
42240A3D
42241EB8
42243333
422447AE
42245C29
422470A4
4224851F
4224999A
4224AE14
4224C28F
4224D70A
4224EB85
42250000
4225147B
422528F6
42253D71
422551EC
42256666
42257AE1
42258F5C
4225A3D7
4225B852
4225CCCD
4225E148
4225F5C3
42260A3D
42261EB8
42263333
422647AE
42265C29
422670A4
4226851F
4226999A
4226AE14
4226C28F
4226D70A
4226EB85
42270000
422CD70A
422CEB85
422D0000
422D147B
422D28F6
422D3D71
422D51EC
422D6666
422D7AE1
422D8F5C
422DA3D7
422DB852
422DCCCD
422DE148
422DF5C3
422E0A3D
422E1EB8
422E3333
422E47AE
422E5C29
422E70A4
422E851F
422E999A
422EAE14
422EC28F
422ED70A
422EEB85
422F0000
422F147B
422F28F6
422F3D71
422F51EC
422F6666
422F7AE1
422F8F5C
422FA3D7
422FB852
422FCCCD
422FE148
422FF5C3
42300A3D
42301EB8
42303333
423047AE
42305C29
423070A4
4230851F
4230999A
4230AE14
4230C28F
4230D70A
4230EB85
42310000
4231147B
423128F6
42313D71
423151EC
42316666
42317AE1
42318F5C
4231A3D7
4231B852
4231CCCD
4231E148
4231F5C3
42320A3D
42321EB8
42323333
423247AE
42325C29
423270A4
4232851F
