3FB8F5C3
3FBB851F
3FBE147B
3FC0A3D7
3FC33333
3FC5C28F
3FC851EC
3FCAE148
3FCD70A4
3FD00000
3FD28F5C
3FD51EB8
3FD7AE14
3FDA3D71
3FDCCCCD
3FDF5C29
3FE1EB85
3FE47AE1
3FE70A3D
3FE9999A
3FEC28F6
3FEEB852
3FF147AE
3FF3D70A
3FF66666
3FF8F5C3
3FFB851F
3FFE147B
400051EC
4001999A
4002E148
400428F6
400570A4
4006B852
40080000
400947AE
400A8F5C
400BD70A
400D1EB8
400E6666
400FAE14
4010F5C3
40123D71
4013851F
4014CCCD
4016147B
40175C29
4018A3D7
4019EB85
401B3333
401C7AE1
401DC28F
401F0A3D
402051EC
4021999A
4022E148
402428F6
402570A4
4026B852
40280000
402947AE
402A8F5C
402BD70A
402D1EB8
402E6666
402FAE14
4030F5C3
40323D71
4033851F
4034CCCD
4036147B
40375C29
408A6666
408B0A3D
408BAE14
408C51EC
408CF5C3
408D999A
408E3D71
408EE148
408F851F
409028F6
4090CCCD
409170A4
4092147B
4092B852
40935C29
40940000
4094A3D7
409547AE
4095EB85
40968F5C
40973333
4097D70A
40987AE1
40991EB8
4099C28F
409A6666
409B0A3D
409BAE14
409C51EC
409CF5C3
409D999A
409E3D71
409EE148
409F851F
40A028F6
40A0CCCD
40A170A4
40A2147B
40A2B852
40A35C29
40A40000
40A4A3D7
40A547AE
40A5EB85
40A68F5C
40A73333
40A7D70A
40A87AE1
40A91EB8
40A9C28F
40AA6666
40AB0A3D
40ABAE14
40AC51EC
40ACF5C3
40AD999A
40AE3D71
40AEE148
40AF851F
40B028F6
40B0CCCD
40B170A4
40B2147B
40B2B852
40B35C29
40B40000
40B4A3D7
40B547AE
40B5EB85
40B68F5C
40B73333
40B7D70A
40E68F5C
40E73333
40E7D70A
40E87AE1
40E91EB8
40E9C28F
40EA6666
40EB0A3D
40EBAE14
40EC51EC
40ECF5C3
40ED999A
40EE3D71
40EEE148
40EF851F
40F028F6
40F0CCCD
40F170A4
40F2147B
40F2B852
40F35C29
40F40000
40F4A3D7
40F547AE
40F5EB85
40F68F5C
40F73333
40F7D70A
40F87AE1
40F91EB8
40F9C28F
40FA6666
40FB0A3D
40FBAE14
40FC51EC
40FCF5C3
40FD999A
40FE3D71
40FEE148
40FF851F
4100147B
41006666
4100B852
41010A3D
41015C29
4101AE14
41020000
410251EC
4102A3D7
4102F5C3
410347AE
4103999A
4103EB85
41043D71
41048F5C
4104E148
41053333
4105851F
4105D70A
410628F6
41067AE1
4106CCCD
41071EB8
410770A4
4107C28F
4108147B
41086666
4108B852
41090A3D
41095C29
4109AE14
410A0000
41215C29
4121AE14
41220000
412251EC
4122A3D7
4122F5C3
412347AE
4123999A
4123EB85
41243D71
41248F5C
4124E148
41253333
4125851F
4125D70A
412628F6
41267AE1
4126CCCD
41271EB8
412770A4
4127C28F
4128147B
41286666
4128B852
41290A3D
41295C29
4129AE14
412A0000
412A51EC
412AA3D7
412AF5C3
412B47AE
412B999A
412BEB85
412C3D71
412C8F5C
412CE148
412D3333
412D851F
412DD70A
412E28F6
412E7AE1
412ECCCD
412F1EB8
412F70A4
412FC28F
4130147B
41306666
4130B852
41310A3D
41315C29
4131AE14
41320000
413251EC
4132A3D7
4132F5C3
413347AE
4133999A
4133EB85
41343D71
41348F5C
4134E148
41353333
4135851F
4135D70A
413628F6
41367AE1
4136CCCD
41371EB8
413770A4
4137C28F
4138147B
414F70A4
414FC28F
4150147B
41506666
4150B852
41510A3D
41515C29
4151AE14
41520000
415251EC
4152A3D7
4152F5C3
415347AE
4153999A
4153EB85
41543D71
41548F5C
4154E148
41553333
4155851F
4155D70A
415628F6
41567AE1
4156CCCD
41571EB8
415770A4
4157C28F
4158147B
41586666
4158B852
41590A3D
41595C29
4159AE14
415A0000
415A51EC
415AA3D7
415AF5C3
415B47AE
415B999A
415BEB85
415C3D71
415C8F5C
415CE148
415D3333
415D851F
415DD70A
415E28F6
415E7AE1
415ECCCD
415F1EB8
415F70A4
415FC28F
4160147B
41606666
4160B852
41610A3D
41615C29
4161AE14
41620000
416251EC
4162A3D7
4162F5C3
416347AE
4163999A
4163EB85
41643D71
41648F5C
4164E148
41653333
4165851F
4165D70A
416628F6
417D851F
417DD70A
417E28F6
417E7AE1
417ECCCD
417F1EB8
417F70A4
417FC28F
41800A3D
41803333
41805C29
4180851F
4180AE14
4180D70A
41810000
418128F6
418151EC
41817AE1
4181A3D7
4181CCCD
4181F5C3
41821EB8
418247AE
418270A4
4182999A
4182C28F
4182EB85
4183147B
41833D71
41836666
41838F5C
4183B852
4183E148
41840A3D
41843333
41845C29
4184851F
4184AE14
4184D70A
41850000
418528F6
418551EC
41857AE1
4185A3D7
4185CCCD
4185F5C3
41861EB8
418647AE
418670A4
4186999A
4186C28F
4186EB85
4187147B
41873D71
41876666
41878F5C
4187B852
4187E148
41880A3D
41883333
41885C29
4188851F
4188AE14
4188D70A
41890000
418928F6
418951EC
41897AE1
4189A3D7
4189CCCD
4189F5C3
418A1EB8
4195CCCD
4195F5C3
41961EB8
419647AE
419670A4
4196999A
4196C28F
4196EB85
4197147B
41973D71
41976666
41978F5C
4197B852
4197E148
41980A3D
41983333
41985C29
4198851F
4198AE14
4198D70A
41990000
419928F6
419951EC
41997AE1
4199A3D7
4199CCCD
4199F5C3
419A1EB8
419A47AE
419A70A4
419A999A
419AC28F
419AEB85
419B147B
419B3D71
419B6666
419B8F5C
419BB852
419BE148
419C0A3D
419C3333
419C5C29
419C851F
419CAE14
419CD70A
419D0000
419D28F6
419D51EC
419D7AE1
419DA3D7
419DCCCD
419DF5C3
419E1EB8
419E47AE
419E70A4
419E999A
419EC28F
419EEB85
419F147B
419F3D71
419F6666
419F8F5C
419FB852
419FE148
41A00A3D
41A03333
41A05C29
41A0851F
41A0AE14
41A0D70A
41A10000
41A128F6
41ACD70A
41AD0000
41AD28F6
41AD51EC
41AD7AE1
41ADA3D7
41ADCCCD
41ADF5C3
41AE1EB8
41AE47AE
41AE70A4
41AE999A
41AEC28F
41AEEB85
41AF147B
41AF3D71
41AF6666
41AF8F5C
41AFB852
41AFE148
41B00A3D
41B03333
41B05C29
41B0851F
41B0AE14
41B0D70A
41B10000
41B128F6
41B151EC
41B17AE1
41B1A3D7
41B1CCCD
41B1F5C3
41B21EB8
41B247AE
41B270A4
41B2999A
41B2C28F
41B2EB85
41B3147B
41B33D71
41B36666
41B38F5C
41B3B852
41B3E148
41B40A3D
41B43333
41B45C29
41B4851F
41B4AE14
41B4D70A
41B50000
41B528F6
41B551EC
41B57AE1
41B5A3D7
41B5CCCD
41B5F5C3
41B61EB8
41B647AE
41B670A4
41B6999A
41B6C28F
41B6EB85
41B7147B
41B73D71
41B76666
41B78F5C
41B7B852
41B7E148
41B80A3D
41B83333
