3BA3D70A
3CCCCCCD
3D3851EB
3D851EB8
3DAE147B
3DD70A3D
3E000000
3E147AE1
3E28F5C3
3E3D70A4
3E51EB85
3E666666
3E7AE148
3E87AE14
3E91EB85
3E9C28F6
3EA66666
3EB0A3D7
3EBAE148
3EC51EB8
3ECF5C29
3ED9999A
3EE3D70A
3EEE147B
3EF851EC
3F0147AE
3F066666
3F0B851F
3F10A3D7
3F15C28F
3F1AE148
3F200000
3F251EB8
3F2A3D71
3F2F5C29
3F347AE1
3F39999A
3F3EB852
3F43D70A
3F48F5C3
3F4E147B
3F533333
3F5851EC
3F5D70A4
3F628F5C
3F67AE14
3F6CCCCD
3F71EB85
3F770A3D
3F7C28F6
3F80A3D7
3F833333
3F85C28F
3F8851EC
3F8AE148
3F8D70A4
3F900000
3F928F5C
3F951EB8
3F97AE14
3F9A3D71
3F9CCCCD
3F9F5C29
3FA1EB85
3FA47AE1
3FA70A3D
3FA9999A
3FAC28F6
3FAEB852
3FB147AE
3FB3D70A
3FB66666
4038A3D7
4039EB85
403B3333
403C7AE1
403DC28F
403F0A3D
404051EC
4041999A
4042E148
404428F6
404570A4
4046B852
40480000
404947AE
404A8F5C
404BD70A
404D1EB8
404E6666
404FAE14
4050F5C3
40523D71
4053851F
4054CCCD
4056147B
40575C29
4058A3D7
4059EB85
405B3333
405C7AE1
405DC28F
405F0A3D
406051EC
4061999A
4062E148
406428F6
406570A4
4066B852
40680000
406947AE
406A8F5C
406BD70A
406D1EB8
406E6666
406FAE14
4070F5C3
40723D71
4073851F
4074CCCD
4076147B
40775C29
4078A3D7
4079EB85
407B3333
407C7AE1
407DC28F
407F0A3D
408028F6
4080CCCD
408170A4
4082147B
4082B852
40835C29
40840000
4084A3D7
408547AE
4085EB85
40868F5C
40873333
4087D70A
40887AE1
40891EB8
4089C28F
40B87AE1
40B91EB8
40B9C28F
40BA6666
40BB0A3D
40BBAE14
40BC51EC
40BCF5C3
40BD999A
40BE3D71
40BEE148
40BF851F
40C028F6
40C0CCCD
40C170A4
40C2147B
40C2B852
40C35C29
40C40000
40C4A3D7
40C547AE
40C5EB85
40C68F5C
40C73333
40C7D70A
40C87AE1
40C91EB8
40C9C28F
40CA6666
40CB0A3D
40CBAE14
40CC51EC
40CCF5C3
40CD999A
40CE3D71
40CEE148
40CF851F
40D028F6
40D0CCCD
40D170A4
40D2147B
40D2B852
40D35C29
40D40000
40D4A3D7
40D547AE
40D5EB85
40D68F5C
40D73333
40D7D70A
40D87AE1
40D91EB8
40D9C28F
40DA6666
40DB0A3D
40DBAE14
40DC51EC
40DCF5C3
40DD999A
40DE3D71
40DEE148
40DF851F
40E028F6
40E0CCCD
40E170A4
40E2147B
40E2B852
40E35C29
40E40000
40E4A3D7
40E547AE
40E5EB85
410A51EC
410AA3D7
410AF5C3
410B47AE
410B999A
410BEB85
410C3D71
410C8F5C
410CE148
410D3333
410D851F
410DD70A
410E28F6
410E7AE1
410ECCCD
410F1EB8
410F70A4
410FC28F
4110147B
41106666
4110B852
41110A3D
41115C29
4111AE14
41120000
411251EC
4112A3D7
4112F5C3
411347AE
4113999A
4113EB85
41143D71
41148F5C
4114E148
41153333
4115851F
4115D70A
411628F6
41167AE1
4116CCCD
41171EB8
411770A4
4117C28F
4118147B
41186666
4118B852
41190A3D
41195C29
4119AE14
411A0000
411A51EC
411AA3D7
411AF5C3
411B47AE
411B999A
411BEB85
411C3D71
411C8F5C
411CE148
411D3333
411D851F
411DD70A
411E28F6
411E7AE1
411ECCCD
411F1EB8
411F70A4
411FC28F
4120147B
41206666
4120B852
41210A3D
41386666
4138B852
41390A3D
41395C29
4139AE14
413A0000
413A51EC
413AA3D7
413AF5C3
413B47AE
413B999A
413BEB85
413C3D71
413C8F5C
413CE148
413D3333
413D851F
413DD70A
413E28F6
413E7AE1
413ECCCD
413F1EB8
413F70A4
413FC28F
4140147B
41406666
4140B852
41410A3D
41415C29
4141AE14
41420000
414251EC
4142A3D7
4142F5C3
414347AE
4143999A
4143EB85
41443D71
41448F5C
4144E148
41453333
4145851F
4145D70A
414628F6
41467AE1
4146CCCD
41471EB8
414770A4
4147C28F
4148147B
41486666
4148B852
41490A3D
41495C29
4149AE14
414A0000
414A51EC
414AA3D7
414AF5C3
414B47AE
414B999A
414BEB85
414C3D71
414C8F5C
414CE148
414D3333
414D851F
414DD70A
414E28F6
414E7AE1
414ECCCD
414F1EB8
41667AE1
4166CCCD
41671EB8
416770A4
4167C28F
4168147B
41686666
4168B852
41690A3D
41695C29
4169AE14
416A0000
416A51EC
416AA3D7
416AF5C3
416B47AE
416B999A
416BEB85
416C3D71
416C8F5C
416CE148
416D3333
416D851F
416DD70A
416E28F6
416E7AE1
416ECCCD
416F1EB8
416F70A4
416FC28F
4170147B
41706666
4170B852
41710A3D
41715C29
4171AE14
41720000
417251EC
4172A3D7
4172F5C3
417347AE
4173999A
4173EB85
41743D71
41748F5C
4174E148
41753333
4175851F
4175D70A
417628F6
41767AE1
4176CCCD
41771EB8
417770A4
4177C28F
4178147B
41786666
4178B852
41790A3D
41795C29
4179AE14
417A0000
417A51EC
417AA3D7
417AF5C3
417B47AE
417B999A
417BEB85
417C3D71
417C8F5C
417CE148
417D3333
418A47AE
418A70A4
418A999A
418AC28F
418AEB85
418B147B
418B3D71
418B6666
418B8F5C
418BB852
418BE148
418C0A3D
418C3333
418C5C29
418C851F
418CAE14
418CD70A
418D0000
418D28F6
418D51EC
418D7AE1
418DA3D7
418DCCCD
418DF5C3
418E1EB8
418E47AE
418E70A4
418E999A
418EC28F
418EEB85
418F147B
418F3D71
418F6666
418F8F5C
418FB852
418FE148
41900A3D
41903333
41905C29
4190851F
4190AE14
4190D70A
41910000
419128F6
419151EC
41917AE1
4191A3D7
4191CCCD
4191F5C3
41921EB8
419247AE
419270A4
4192999A
4192C28F
4192EB85
4193147B
41933D71
41936666
41938F5C
4193B852
4193E148
41940A3D
41943333
41945C29
4194851F
4194AE14
4194D70A
41950000
419528F6
419551EC
41957AE1
4195A3D7
41A151EC
41A17AE1
41A1A3D7
41A1CCCD
41A1F5C3
41A21EB8
41A247AE
41A270A4
41A2999A
41A2C28F
41A2EB85
41A3147B
41A33D71
41A36666
41A38F5C
41A3B852
41A3E148
41A40A3D
41A43333
41A45C29
41A4851F
41A4AE14
41A4D70A
41A50000
41A528F6
41A551EC
41A57AE1
41A5A3D7
41A5CCCD
41A5F5C3
41A61EB8
41A647AE
41A670A4
41A6999A
41A6C28F
41A6EB85
41A7147B
41A73D71
41A76666
41A78F5C
41A7B852
41A7E148
41A80A3D
41A83333
41A85C29
41A8851F
41A8AE14
41A8D70A
41A90000
41A928F6
41A951EC
41A97AE1
41A9A3D7
41A9CCCD
41A9F5C3
41AA1EB8
41AA47AE
41AA70A4
41AA999A
41AAC28F
41AAEB85
41AB147B
41AB3D71
41AB6666
41AB8F5C
41ABB852
41ABE148
41AC0A3D
41AC3333
41AC5C29
41AC851F
41ACAE14
