3C23D70A
3CF5C28F
3D4CCCCD
3D8F5C29
3DB851EB
3DE147AE
3E051EB8
3E19999A
3E2E147B
3E428F5C
3E570A3D
3E6B851F
3E800000
3E8A3D71
3E947AE1
3E9EB852
3EA8F5C3
3EB33333
3EBD70A4
3EC7AE14
3ED1EB85
3EDC28F6
3EE66666
3EF0A3D7
3EFAE148
3F028F5C
3F07AE14
3F0CCCCD
3F11EB85
3F170A3D
3F1C28F6
3F2147AE
3F266666
3F2B851F
3F30A3D7
3F35C28F
3F3AE148
3F400000
3F451EB8
3F4A3D71
3F4F5C29
3F547AE1
3F59999A
3F5EB852
3F63D70A
3F68F5C3
3F6E147B
3F733333
3F7851EC
3F7D70A4
3F8147AE
3F83D70A
3F866666
3F88F5C3
3F8B851F
3F8E147B
3F90A3D7
3F933333
3F95C28F
3F9851EC
3F9AE148
3F9D70A4
3FA00000
3FA28F5C
3FA51EB8
3FA7AE14
3FAA3D71
3FACCCCD
3FAF5C29
3FB1EB85
3FB47AE1
3FB70A3D
4038F5C3
403A3D71
403B851F
403CCCCD
403E147B
403F5C29
4040A3D7
4041EB85
40433333
40447AE1
4045C28F
40470A3D
404851EC
4049999A
404AE148
404C28F6
404D70A4
404EB852
40500000
405147AE
40528F5C
4053D70A
40551EB8
40566666
4057AE14
4058F5C3
405A3D71
405B851F
405CCCCD
405E147B
405F5C29
4060A3D7
4061EB85
40633333
40647AE1
4065C28F
40670A3D
406851EC
4069999A
406AE148
406C28F6
406D70A4
406EB852
40700000
407147AE
40728F5C
4073D70A
40751EB8
40766666
4077AE14
4078F5C3
407A3D71
407B851F
407CCCCD
407E147B
407F5C29
408051EC
4080F5C3
4081999A
40823D71
4082E148
4083851F
408428F6
4084CCCD
408570A4
4086147B
4086B852
40875C29
40880000
4088A3D7
408947AE
4089EB85
40B8A3D7
40B947AE
40B9EB85
40BA8F5C
40BB3333
40BBD70A
40BC7AE1
40BD1EB8
40BDC28F
40BE6666
40BF0A3D
40BFAE14
40C051EC
40C0F5C3
40C1999A
40C23D71
40C2E148
40C3851F
40C428F6
40C4CCCD
40C570A4
40C6147B
40C6B852
40C75C29
40C80000
40C8A3D7
40C947AE
40C9EB85
40CA8F5C
40CB3333
40CBD70A
40CC7AE1
40CD1EB8
40CDC28F
40CE6666
40CF0A3D
40CFAE14
40D051EC
40D0F5C3
40D1999A
40D23D71
40D2E148
40D3851F
40D428F6
40D4CCCD
40D570A4
40D6147B
40D6B852
40D75C29
40D80000
40D8A3D7
40D947AE
40D9EB85
40DA8F5C
40DB3333
40DBD70A
40DC7AE1
40DD1EB8
40DDC28F
40DE6666
40DF0A3D
40DFAE14
40E051EC
40E0F5C3
40E1999A
40E23D71
40E2E148
40E3851F
40E428F6
40E4CCCD
40E570A4
40E6147B
410A6666
410AB852
410B0A3D
410B5C29
410BAE14
410C0000
410C51EC
410CA3D7
410CF5C3
410D47AE
410D999A
410DEB85
410E3D71
410E8F5C
410EE148
410F3333
410F851F
410FD70A
411028F6
41107AE1
4110CCCD
41111EB8
411170A4
4111C28F
4112147B
41126666
4112B852
41130A3D
41135C29
4113AE14
41140000
411451EC
4114A3D7
4114F5C3
411547AE
4115999A
4115EB85
41163D71
41168F5C
4116E148
41173333
4117851F
4117D70A
411828F6
41187AE1
4118CCCD
41191EB8
411970A4
4119C28F
411A147B
411A6666
411AB852
411B0A3D
411B5C29
411BAE14
411C0000
411C51EC
411CA3D7
411CF5C3
411D47AE
411D999A
411DEB85
411E3D71
411E8F5C
411EE148
411F3333
411F851F
411FD70A
412028F6
41207AE1
4120CCCD
41211EB8
41387AE1
4138CCCD
41391EB8
413970A4
4139C28F
413A147B
413A6666
413AB852
413B0A3D
413B5C29
413BAE14
413C0000
413C51EC
413CA3D7
413CF5C3
413D47AE
413D999A
413DEB85
413E3D71
413E8F5C
413EE148
413F3333
413F851F
413FD70A
414028F6
41407AE1
4140CCCD
41411EB8
414170A4
4141C28F
4142147B
41426666
4142B852
41430A3D
41435C29
4143AE14
41440000
414451EC
4144A3D7
4144F5C3
414547AE
4145999A
4145EB85
41463D71
41468F5C
4146E148
41473333
4147851F
4147D70A
414828F6
41487AE1
4148CCCD
41491EB8
414970A4
4149C28F
414A147B
414A6666
414AB852
414B0A3D
414B5C29
414BAE14
414C0000
414C51EC
414CA3D7
414CF5C3
414D47AE
414D999A
414DEB85
414E3D71
414E8F5C
414EE148
414F3333
41668F5C
4166E148
41673333
4167851F
4167D70A
416828F6
41687AE1
4168CCCD
41691EB8
416970A4
4169C28F
416A147B
416A6666
416AB852
416B0A3D
416B5C29
416BAE14
416C0000
416C51EC
416CA3D7
416CF5C3
416D47AE
416D999A
416DEB85
416E3D71
416E8F5C
416EE148
416F3333
416F851F
416FD70A
417028F6
41707AE1
4170CCCD
41711EB8
417170A4
4171C28F
4172147B
41726666
4172B852
41730A3D
41735C29
4173AE14
41740000
417451EC
4174A3D7
4174F5C3
417547AE
4175999A
4175EB85
41763D71
41768F5C
4176E148
41773333
4177851F
4177D70A
417828F6
41787AE1
4178CCCD
41791EB8
417970A4
4179C28F
417A147B
417A6666
417AB852
417B0A3D
417B5C29
417BAE14
417C0000
417C51EC
417CA3D7
417CF5C3
417D47AE
418A51EC
418A7AE1
418AA3D7
418ACCCD
418AF5C3
418B1EB8
418B47AE
418B70A4
418B999A
418BC28F
418BEB85
418C147B
418C3D71
418C6666
418C8F5C
418CB852
418CE148
418D0A3D
418D3333
418D5C29
418D851F
418DAE14
418DD70A
418E0000
418E28F6
418E51EC
418E7AE1
418EA3D7
418ECCCD
418EF5C3
418F1EB8
418F47AE
418F70A4
418F999A
418FC28F
418FEB85
4190147B
41903D71
41906666
41908F5C
4190B852
4190E148
41910A3D
41913333
41915C29
4191851F
4191AE14
4191D70A
41920000
419228F6
419251EC
41927AE1
4192A3D7
4192CCCD
4192F5C3
41931EB8
419347AE
419370A4
4193999A
4193C28F
4193EB85
4194147B
41943D71
41946666
41948F5C
4194B852
4194E148
41950A3D
41953333
41955C29
4195851F
4195AE14
41A15C29
41A1851F
41A1AE14
41A1D70A
41A20000
41A228F6
41A251EC
41A27AE1
41A2A3D7
41A2CCCD
41A2F5C3
41A31EB8
41A347AE
41A370A4
41A3999A
41A3C28F
41A3EB85
41A4147B
41A43D71
41A46666
41A48F5C
41A4B852
41A4E148
41A50A3D
41A53333
41A55C29
41A5851F
41A5AE14
41A5D70A
41A60000
41A628F6
41A651EC
41A67AE1
41A6A3D7
41A6CCCD
41A6F5C3
41A71EB8
41A747AE
41A770A4
41A7999A
41A7C28F
41A7EB85
41A8147B
41A83D71
41A86666
41A88F5C
41A8B852
41A8E148
41A90A3D
41A93333
41A95C29
41A9851F
41A9AE14
41A9D70A
41AA0000
41AA28F6
41AA51EC
41AA7AE1
41AAA3D7
41AACCCD
41AAF5C3
41AB1EB8
41AB47AE
41AB70A4
41AB999A
41ABC28F
41ABEB85
41AC147B
41AC3D71
41AC6666
41AC8F5C
41ACB852
