3C23D70A
3CF5C28F
3D4CCCCD
3D8F5C29
3DB851EB
3DE147AE
3E051EB8
3E19999A
3E2E147B
3E428F5C
3E570A3D
3E6B851F
3E800000
3E8A3D71
3E947AE1
3E9EB852
3EA8F5C3
3EB33333
3EBD70A4
3EC7AE14
3ED1EB85
3EDC28F6
3EE66666
3EF0A3D7
3EFAE148
3F028F5C
3F07AE14
3F0CCCCD
3F11EB85
3F170A3D
3F1C28F6
3F2147AE
3F266666
3F2B851F
3F30A3D7
3F35C28F
3F3AE148
3F400000
3F451EB8
3F4A3D71
3F4F5C29
3F547AE1
3F59999A
3F5EB852
3F63D70A
3F68F5C3
3F6E147B
3F733333
3F7851EC
3F7D70A4
3F8147AE
3F83D70A
3F866666
3F88F5C3
3F8B851F
3F8E147B
3F90A3D7
3F933333
3F95C28F
3F9851EC
3F9AE148
3F9D70A4
3FA00000
3FA28F5C
3FA51EB8
3FA7AE14
3FAA3D71
3FACCCCD
3FAF5C29
3FB1EB85
3FB47AE1
3FB70A3D
3FB9999A
3FBC28F6
3FBEB852
3FC147AE
3FC3D70A
3FC66666
3FC8F5C3
3FCB851F
3FCE147B
3FD0A3D7
3FD33333
3FD5C28F
3FD851EC
3FDAE148
3FDD70A4
3FE00000
3FE28F5C
3FE51EB8
3FE7AE14
3FEA3D71
3FECCCCD
3FEF5C29
3FF1EB85
3FF47AE1
3FF70A3D
3FF9999A
3FFC28F6
3FFEB852
4000A3D7
4001EB85
40033333
40047AE1
4005C28F
40070A3D
400851EC
4009999A
400AE148
400C28F6
400D70A4
400EB852
40100000
401147AE
40128F5C
4013D70A
40151EB8
40166666
4017AE14
4018F5C3
401A3D71
401B851F
401CCCCD
401E147B
401F5C29
4020A3D7
4021EB85
40233333
40247AE1
4025C28F
40270A3D
402851EC
4029999A
402AE148
402C28F6
402D70A4
402EB852
40300000
403147AE
40328F5C
4033D70A
40351EB8
40366666
4037AE14
4038F5C3
403A3D71
403B851F
403CCCCD
403E147B
403F5C29
4040A3D7
4041EB85
40433333
40447AE1
4045C28F
40470A3D
404851EC
4049999A
404AE148
404C28F6
404D70A4
404EB852
40500000
405147AE
40528F5C
4053D70A
40551EB8
40566666
4057AE14
4058F5C3
405A3D71
405B851F
405CCCCD
405E147B
405F5C29
4060A3D7
4061EB85
40633333
40647AE1
4065C28F
40670A3D
406851EC
4069999A
406AE148
406C28F6
406D70A4
406EB852
40700000
407147AE
40728F5C
4073D70A
40751EB8
40766666
4077AE14
4078F5C3
407A3D71
407B851F
407CCCCD
407E147B
407F5C29
408051EC
4080F5C3
4081999A
40823D71
4082E148
4083851F
408428F6
4084CCCD
408570A4
4086147B
4086B852
40875C29
40880000
4088A3D7
408947AE
4089EB85
408A8F5C
408B3333
408BD70A
408C7AE1
408D1EB8
408DC28F
408E6666
408F0A3D
408FAE14
409051EC
4090F5C3
4091999A
40923D71
4092E148
4093851F
409428F6
4094CCCD
409570A4
4096147B
4096B852
40975C29
40980000
4098A3D7
409947AE
4099EB85
409A8F5C
409B3333
409BD70A
409C7AE1
409D1EB8
409DC28F
409E6666
409F0A3D
409FAE14
40A051EC
40A0F5C3
40A1999A
40A23D71
40A2E148
40A3851F
40A428F6
40A4CCCD
40A570A4
40A6147B
40A6B852
40A75C29
40A80000
40A8A3D7
40A947AE
40A9EB85
40AA8F5C
40AB3333
40ABD70A
40AC7AE1
40AD1EB8
40ADC28F
40AE6666
40AF0A3D
40AFAE14
40B051EC
40B0F5C3
40B1999A
40B23D71
40B2E148
40B3851F
40B428F6
40B4CCCD
40B570A4
40B6147B
40B6B852
40B75C29
40B80000
40B8A3D7
40B947AE
40B9EB85
40BA8F5C
40BB3333
40BBD70A
40BC7AE1
40BD1EB8
40BDC28F
40BE6666
40BF0A3D
40BFAE14
40C051EC
40C0F5C3
40C1999A
40C23D71
40C2E148
40C3851F
40C428F6
40C4CCCD
40C570A4
40C6147B
40C6B852
40C75C29
40C80000
40C8A3D7
40C947AE
40C9EB85
40CA8F5C
40CB3333
40CBD70A
40CC7AE1
40CD1EB8
40CDC28F
40CE6666
40CF0A3D
40CFAE14
40D051EC
40D0F5C3
40D1999A
40D23D71
40D2E148
40D3851F
40D428F6
40D4CCCD
40D570A4
40D6147B
40D6B852
40D75C29
40D80000
40D8A3D7
40D947AE
40D9EB85
40DA8F5C
40DB3333
40DBD70A
40DC7AE1
40DD1EB8
40DDC28F
40DE6666
40DF0A3D
40DFAE14
40E051EC
40E0F5C3
40E1999A
40E23D71
40E2E148
40E3851F
40E428F6
40E4CCCD
40E570A4
40E6147B
40E6B852
40E75C29
40E80000
40E8A3D7
40E947AE
40E9EB85
40EA8F5C
40EB3333
40EBD70A
40EC7AE1
40ED1EB8
40EDC28F
40EE6666
40EF0A3D
40EFAE14
40F051EC
40F0F5C3
40F1999A
40F23D71
40F2E148
40F3851F
40F428F6
40F4CCCD
40F570A4
40F6147B
40F6B852
40F75C29
40F80000
40F8A3D7
40F947AE
40F9EB85
40FA8F5C
40FB3333
40FBD70A
40FC7AE1
40FD1EB8
40FDC28F
40FE6666
40FF0A3D
40FFAE14
410028F6
41007AE1
4100CCCD
41011EB8
410170A4
4101C28F
4102147B
41026666
4102B852
41030A3D
41035C29
4103AE14
41040000
410451EC
4104A3D7
4104F5C3
410547AE
4105999A
4105EB85
41063D71
41068F5C
4106E148
41073333
4107851F
4107D70A
410828F6
41087AE1
4108CCCD
41091EB8
410970A4
4109C28F
410A147B
410A6666
410AB852
410B0A3D
410B5C29
410BAE14
410C0000
410C51EC
410CA3D7
410CF5C3
410D47AE
410D999A
410DEB85
410E3D71
410E8F5C
410EE148
410F3333
410F851F
410FD70A
411028F6
41107AE1
4110CCCD
41111EB8
411170A4
4111C28F
4112147B
41126666
4112B852
41130A3D
41135C29
4113AE14
41140000
411451EC
4114A3D7
4114F5C3
411547AE
4115999A
4115EB85
41163D71
41168F5C
4116E148
41173333
4117851F
4117D70A
411828F6
41187AE1
4118CCCD
41191EB8
411970A4
4119C28F
411A147B
411A6666
411AB852
411B0A3D
411B5C29
411BAE14
411C0000
411C51EC
411CA3D7
411CF5C3
411D47AE
411D999A
411DEB85
411E3D71
411E8F5C
411EE148
411F3333
411F851F
411FD70A
412028F6
41207AE1
4120CCCD
41211EB8
412170A4
4121C28F
4122147B
41226666
4122B852
41230A3D
41235C29
4123AE14
41240000
412451EC
4124A3D7
4124F5C3
412547AE
4125999A
4125EB85
41263D71
41268F5C
4126E148
41273333
4127851F
4127D70A
412828F6
41287AE1
4128CCCD
41291EB8
412970A4
4129C28F
412A147B
412A6666
412AB852
412B0A3D
412B5C29
412BAE14
412C0000
412C51EC
412CA3D7
412CF5C3
412D47AE
412D999A
412DEB85
412E3D71
412E8F5C
412EE148
412F3333
412F851F
412FD70A
413028F6
41307AE1
4130CCCD
41311EB8
413170A4
4131C28F
4132147B
41326666
4132B852
41330A3D
41335C29
4133AE14
41340000
413451EC
4134A3D7
4134F5C3
413547AE
4135999A
4135EB85
41363D71
41368F5C
4136E148
41373333
4137851F
4137D70A
413828F6
41387AE1
4138CCCD
41391EB8
413970A4
4139C28F
413A147B
413A6666
413AB852
413B0A3D
413B5C29
413BAE14
413C0000
413C51EC
413CA3D7
413CF5C3
413D47AE
413D999A
413DEB85
413E3D71
413E8F5C
413EE148
413F3333
413F851F
413FD70A
414028F6
41407AE1
4140CCCD
41411EB8
414170A4
4141C28F
4142147B
41426666
4142B852
41430A3D
41435C29
4143AE14
41440000
414451EC
4144A3D7
4144F5C3
414547AE
4145999A
4145EB85
41463D71
41468F5C
4146E148
41473333
4147851F
4147D70A
414828F6
41487AE1
4148CCCD
41491EB8
414970A4
4149C28F
414A147B
414A6666
414AB852
414B0A3D
414B5C29
414BAE14
414C0000
414C51EC
414CA3D7
414CF5C3
414D47AE
414D999A
414DEB85
414E3D71
414E8F5C
414EE148
414F3333
414F851F
414FD70A
415028F6
41507AE1
4150CCCD
41511EB8
415170A4
4151C28F
4152147B
41526666
4152B852
41530A3D
41535C29
4153AE14
41540000
415451EC
4154A3D7
4154F5C3
415547AE
4155999A
4155EB85
41563D71
41568F5C
4156E148
41573333
4157851F
4157D70A
415828F6
41587AE1
4158CCCD
41591EB8
415970A4
4159C28F
415A147B
415A6666
415AB852
415B0A3D
415B5C29
415BAE14
415C0000
415C51EC
415CA3D7
415CF5C3
415D47AE
415D999A
415DEB85
415E3D71
415E8F5C
415EE148
415F3333
415F851F
415FD70A
416028F6
41607AE1
4160CCCD
41611EB8
416170A4
4161C28F
4162147B
41626666
4162B852
41630A3D
41635C29
4163AE14
41640000
416451EC
4164A3D7
4164F5C3
416547AE
4165999A
4165EB85
41663D71
41668F5C
4166E148
41673333
4167851F
4167D70A
416828F6
41687AE1
4168CCCD
41691EB8
416970A4
4169C28F
416A147B
416A6666
416AB852
416B0A3D
416B5C29
416BAE14
416C0000
416C51EC
416CA3D7
416CF5C3
416D47AE
416D999A
416DEB85
416E3D71
416E8F5C
416EE148
416F3333
416F851F
416FD70A
417028F6
41707AE1
4170CCCD
41711EB8
417170A4
4171C28F
4172147B
41726666
4172B852
41730A3D
41735C29
4173AE14
41740000
417451EC
4174A3D7
4174F5C3
417547AE
4175999A
4175EB85
41763D71
41768F5C
4176E148
41773333
4177851F
4177D70A
417828F6
41787AE1
4178CCCD
41791EB8
417970A4
4179C28F
417A147B
417A6666
417AB852
417B0A3D
417B5C29
417BAE14
417C0000
417C51EC
417CA3D7
417CF5C3
417D47AE
417D999A
417DEB85
417E3D71
417E8F5C
417EE148
417F3333
417F851F
417FD70A
4180147B
41803D71
41806666
41808F5C
4180B852
4180E148
41810A3D
41813333
41815C29
4181851F
4181AE14
4181D70A
41820000
418228F6
418251EC
41827AE1
4182A3D7
4182CCCD
4182F5C3
41831EB8
418347AE
418370A4
4183999A
4183C28F
4183EB85
4184147B
41843D71
41846666
41848F5C
4184B852
4184E148
41850A3D
41853333
41855C29
4185851F
4185AE14
4185D70A
41860000
418628F6
418651EC
41867AE1
4186A3D7
4186CCCD
4186F5C3
41871EB8
418747AE
418770A4
4187999A
4187C28F
4187EB85
4188147B
41883D71
41886666
41888F5C
4188B852
4188E148
41890A3D
41893333
41895C29
4189851F
4189AE14
4189D70A
418A0000
418A28F6
418A51EC
418A7AE1
418AA3D7
418ACCCD
418AF5C3
418B1EB8
418B47AE
418B70A4
418B999A
418BC28F
418BEB85
418C147B
418C3D71
418C6666
418C8F5C
418CB852
418CE148
418D0A3D
418D3333
418D5C29
418D851F
418DAE14
418DD70A
418E0000
418E28F6
418E51EC
418E7AE1
418EA3D7
418ECCCD
418EF5C3
418F1EB8
418F47AE
418F70A4
418F999A
418FC28F
418FEB85
4190147B
41903D71
41906666
41908F5C
4190B852
4190E148
41910A3D
41913333
41915C29
4191851F
4191AE14
4191D70A
41920000
419228F6
419251EC
41927AE1
4192A3D7
4192CCCD
4192F5C3
41931EB8
419347AE
419370A4
4193999A
4193C28F
4193EB85
4194147B
41943D71
41946666
41948F5C
4194B852
4194E148
41950A3D
41953333
41955C29
4195851F
4195AE14
4195D70A
41960000
419628F6
419651EC
41967AE1
4196A3D7
4196CCCD
4196F5C3
41971EB8
419747AE
419770A4
4197999A
4197C28F
4197EB85
4198147B
41983D71
41986666
41988F5C
4198B852
4198E148
41990A3D
41993333
41995C29
4199851F
4199AE14
4199D70A
419A0000
419A28F6
419A51EC
419A7AE1
419AA3D7
419ACCCD
419AF5C3
419B1EB8
419B47AE
419B70A4
419B999A
419BC28F
419BEB85
419C147B
419C3D71
419C6666
419C8F5C
419CB852
419CE148
419D0A3D
419D3333
419D5C29
419D851F
419DAE14
419DD70A
419E0000
419E28F6
419E51EC
419E7AE1
419EA3D7
419ECCCD
419EF5C3
419F1EB8
419F47AE
419F70A4
419F999A
419FC28F
419FEB85
41A0147B
41A03D71
41A06666
41A08F5C
41A0B852
41A0E148
41A10A3D
41A13333
41A15C29
41A1851F
41A1AE14
41A1D70A
41A20000
41A228F6
41A251EC
41A27AE1
41A2A3D7
41A2CCCD
41A2F5C3
41A31EB8
41A347AE
41A370A4
41A3999A
41A3C28F
41A3EB85
41A4147B
41A43D71
41A46666
41A48F5C
41A4B852
41A4E148
41A50A3D
41A53333
41A55C29
41A5851F
41A5AE14
41A5D70A
41A60000
41A628F6
41A651EC
41A67AE1
41A6A3D7
41A6CCCD
41A6F5C3
41A71EB8
41A747AE
41A770A4
41A7999A
41A7C28F
41A7EB85
41A8147B
41A83D71
41A86666
41A88F5C
41A8B852
41A8E148
41A90A3D
41A93333
41A95C29
41A9851F
41A9AE14
41A9D70A
41AA0000
41AA28F6
41AA51EC
41AA7AE1
41AAA3D7
41AACCCD
41AAF5C3
41AB1EB8
41AB47AE
41AB70A4
41AB999A
41ABC28F
41ABEB85
41AC147B
41AC3D71
41AC6666
41AC8F5C
41ACB852
41ACE148
41AD0A3D
41AD3333
41AD5C29
41AD851F
41ADAE14
41ADD70A
41AE0000
41AE28F6
41AE51EC
41AE7AE1
41AEA3D7
41AECCCD
41AEF5C3
41AF1EB8
41AF47AE
41AF70A4
41AF999A
41AFC28F
41AFEB85
41B0147B
41B03D71
41B06666
41B08F5C
41B0B852
41B0E148
41B10A3D
41B13333
41B15C29
41B1851F
41B1AE14
41B1D70A
41B20000
41B228F6
41B251EC
41B27AE1
41B2A3D7
41B2CCCD
41B2F5C3
41B31EB8
41B347AE
41B370A4
41B3999A
41B3C28F
41B3EB85
41B4147B
41B43D71
41B46666
41B48F5C
41B4B852
41B4E148
41B50A3D
41B53333
41B55C29
41B5851F
41B5AE14
41B5D70A
41B60000
41B628F6
41B651EC
41B67AE1
41B6A3D7
41B6CCCD
41B6F5C3
41B71EB8
41B747AE
41B770A4
41B7999A
41B7C28F
41B7EB85
41B8147B
41B83D71
41B86666
41B88F5C
41B8B852
41B8E148
41B90A3D
41B93333
41B95C29
41B9851F
41B9AE14
41B9D70A
41BA0000
41BA28F6
41BA51EC
41BA7AE1
41BAA3D7
41BACCCD
41BAF5C3
41BB1EB8
41BB47AE
41BB70A4
41BB999A
41BBC28F
41BBEB85
41BC147B
41BC3D71
41BC6666
41BC8F5C
41BCB852
41BCE148
41BD0A3D
41BD3333
41BD5C29
41BD851F
41BDAE14
41BDD70A
41BE0000
41BE28F6
41BE51EC
41BE7AE1
41BEA3D7
41BECCCD
41BEF5C3
41BF1EB8
41BF47AE
41BF70A4
41BF999A
41BFC28F
41BFEB85
41C0147B
41C03D71
41C06666
41C08F5C
41C0B852
41C0E148
41C10A3D
41C13333
41C15C29
41C1851F
41C1AE14
41C1D70A
41C20000
41C228F6
41C251EC
41C27AE1
41C2A3D7
41C2CCCD
41C2F5C3
41C31EB8
41C347AE
41C370A4
41C3999A
41C3C28F
41C3EB85
41C4147B
41C43D71
41C46666
41C48F5C
41C4B852
41C4E148
41C50A3D
41C53333
41C55C29
41C5851F
41C5AE14
41C5D70A
41C60000
41C628F6
41C651EC
41C67AE1
41C6A3D7
41C6CCCD
41C6F5C3
41C71EB8
41C747AE
41C770A4
41C7999A
41C7C28F
41C7EB85
41C8147B
41C83D71
41C86666
41C88F5C
41C8B852
41C8E148
41C90A3D
41C93333
41C95C29
41C9851F
41C9AE14
41C9D70A
41CA0000
41CA28F6
41CA51EC
41CA7AE1
41CAA3D7
41CACCCD
41CAF5C3
41CB1EB8
41CB47AE
41CB70A4
41CB999A
41CBC28F
41CBEB85
41CC147B
41CC3D71
41CC6666
41CC8F5C
41CCB852
41CCE148
41CD0A3D
41CD3333
41CD5C29
41CD851F
41CDAE14
41CDD70A
41CE0000
41CE28F6
41CE51EC
41CE7AE1
41CEA3D7
41CECCCD
41CEF5C3
41CF1EB8
41CF47AE
41CF70A4
41CF999A
41CFC28F
41CFEB85
41D0147B
41D03D71
41D06666
41D08F5C
41D0B852
41D0E148
41D10A3D
41D13333
41D15C29
41D1851F
41D1AE14
41D1D70A
41D20000
41D228F6
41D251EC
41D27AE1
41D2A3D7
41D2CCCD
41D2F5C3
41D31EB8
41D347AE
41D370A4
41D3999A
41D3C28F
41D3EB85
41D4147B
41D43D71
41D46666
41D48F5C
41D4B852
41D4E148
41D50A3D
41D53333
41D55C29
41D5851F
41D5AE14
41D5D70A
41D60000
41D628F6
41D651EC
41D67AE1
41D6A3D7
41D6CCCD
41D6F5C3
41D71EB8
41D747AE
41D770A4
41D7999A
41D7C28F
41D7EB85
41D8147B
41D83D71
41D86666
41D88F5C
41D8B852
41D8E148
41D90A3D
41D93333
41D95C29
41D9851F
41D9AE14
41D9D70A
41DA0000
41DA28F6
41DA51EC
41DA7AE1
41DAA3D7
41DACCCD
41DAF5C3
41DB1EB8
41DB47AE
41DB70A4
41DB999A
41DBC28F
41DBEB85
41DC147B
41DC3D71
41DC6666
41DC8F5C
41DCB852
41DCE148
41DD0A3D
41DD3333
41DD5C29
41DD851F
41DDAE14
41DDD70A
41DE0000
41DE28F6
41DE51EC
41DE7AE1
41DEA3D7
41DECCCD
41DEF5C3
41DF1EB8
41DF47AE
41DF70A4
41DF999A
41DFC28F
41DFEB85
41E0147B
41E03D71
41E06666
41E08F5C
41E0B852
41E0E148
41E10A3D
41E13333
41E15C29
41E1851F
41E1AE14
41E1D70A
41E20000
41E228F6
41E251EC
41E27AE1
41E2A3D7
41E2CCCD
41E2F5C3
41E31EB8
41E347AE
41E370A4
41E3999A
41E3C28F
41E3EB85
41E4147B
41E43D71
41E46666
41E48F5C
41E4B852
41E4E148
41E50A3D
41E53333
41E55C29
41E5851F
41E5AE14
41E5D70A
41E60000
41E628F6
41E651EC
41E67AE1
41E6A3D7
41E6CCCD
41E6F5C3
41E71EB8
41E747AE
41E770A4
41E7999A
41E7C28F
41E7EB85
41E8147B
41E83D71
41E86666
41E88F5C
41E8B852
41E8E148
41E90A3D
41E93333
41E95C29
41E9851F
41E9AE14
41E9D70A
41EA0000
41EA28F6
41EA51EC
41EA7AE1
41EAA3D7
41EACCCD
41EAF5C3
41EB1EB8
41EB47AE
41EB70A4
41EB999A
41EBC28F
41EBEB85
41EC147B
41EC3D71
41EC6666
41EC8F5C
41ECB852
41ECE148
41ED0A3D
41ED3333
41ED5C29
41ED851F
41EDAE14
41EDD70A
41EE0000
41EE28F6
41EE51EC
41EE7AE1
41EEA3D7
41EECCCD
41EEF5C3
41EF1EB8
41EF47AE
41EF70A4
41EF999A
41EFC28F
41EFEB85
41F0147B
41F03D71
41F06666
41F08F5C
41F0B852
41F0E148
41F10A3D
41F13333
41F15C29
41F1851F
41F1AE14
41F1D70A
41F20000
41F228F6
41F251EC
41F27AE1
41F2A3D7
41F2CCCD
41F2F5C3
41F31EB8
41F347AE
41F370A4
41F3999A
41F3C28F
41F3EB85
41F4147B
41F43D71
41F46666
41F48F5C
41F4B852
41F4E148
41F50A3D
41F53333
41F55C29
41F5851F
41F5AE14
41F5D70A
41F60000
41F628F6
41F651EC
41F67AE1
41F6A3D7
41F6CCCD
41F6F5C3
41F71EB8
41F747AE
41F770A4
41F7999A
41F7C28F
41F7EB85
41F8147B
41F83D71
41F86666
41F88F5C
41F8B852
41F8E148
41F90A3D
41F93333
41F95C29
41F9851F
41F9AE14
41F9D70A
41FA0000
41FA28F6
41FA51EC
41FA7AE1
41FAA3D7
41FACCCD
41FAF5C3
41FB1EB8
41FB47AE
41FB70A4
41FB999A
41FBC28F
41FBEB85
41FC147B
41FC3D71
41FC6666
41FC8F5C
41FCB852
41FCE148
41FD0A3D
41FD3333
41FD5C29
41FD851F
41FDAE14
41FDD70A
41FE0000
41FE28F6
41FE51EC
41FE7AE1
41FEA3D7
41FECCCD
41FEF5C3
41FF1EB8
41FF47AE
41FF70A4
41FF999A
41FFC28F
41FFEB85
42000A3D
42001EB8
42003333
420047AE
42005C29
420070A4
4200851F
4200999A
4200AE14
4200C28F
4200D70A
4200EB85
42010000
4201147B
420128F6
42013D71
420151EC
42016666
42017AE1
42018F5C
4201A3D7
4201B852
4201CCCD
4201E148
4201F5C3
42020A3D
42021EB8
42023333
420247AE
42025C29
420270A4
4202851F
4202999A
4202AE14
4202C28F
4202D70A
4202EB85
42030000
4203147B
420328F6
42033D71
420351EC
42036666
42037AE1
42038F5C
4203A3D7
4203B852
4203CCCD
4203E148
4203F5C3
42040A3D
42041EB8
42043333
420447AE
42045C29
420470A4
4204851F
4204999A
4204AE14
4204C28F
4204D70A
4204EB85
42050000
4205147B
420528F6
42053D71
420551EC
42056666
42057AE1
42058F5C
4205A3D7
4205B852
4205CCCD
4205E148
4205F5C3
42060A3D
42061EB8
42063333
420647AE
42065C29
420670A4
4206851F
4206999A
4206AE14
4206C28F
4206D70A
4206EB85
42070000
4207147B
420728F6
42073D71
420751EC
42076666
42077AE1
42078F5C
4207A3D7
4207B852
4207CCCD
4207E148
4207F5C3
42080A3D
42081EB8
42083333
420847AE
42085C29
420870A4
4208851F
4208999A
4208AE14
4208C28F
4208D70A
4208EB85
42090000
4209147B
420928F6
42093D71
420951EC
42096666
42097AE1
42098F5C
4209A3D7
4209B852
4209CCCD
4209E148
4209F5C3
420A0A3D
420A1EB8
420A3333
420A47AE
420A5C29
420A70A4
420A851F
420A999A
420AAE14
420AC28F
420AD70A
420AEB85
420B0000
420B147B
420B28F6
420B3D71
420B51EC
420B6666
420B7AE1
420B8F5C
420BA3D7
420BB852
420BCCCD
420BE148
420BF5C3
420C0A3D
420C1EB8
420C3333
420C47AE
420C5C29
420C70A4
420C851F
420C999A
420CAE14
420CC28F
420CD70A
420CEB85
420D0000
420D147B
420D28F6
420D3D71
420D51EC
420D6666
420D7AE1
420D8F5C
420DA3D7
420DB852
420DCCCD
420DE148
420DF5C3
420E0A3D
420E1EB8
420E3333
420E47AE
420E5C29
420E70A4
420E851F
420E999A
420EAE14
420EC28F
420ED70A
420EEB85
420F0000
420F147B
420F28F6
420F3D71
420F51EC
420F6666
420F7AE1
420F8F5C
420FA3D7
420FB852
420FCCCD
420FE148
420FF5C3
42100A3D
42101EB8
42103333
421047AE
42105C29
421070A4
4210851F
4210999A
4210AE14
4210C28F
4210D70A
4210EB85
42110000
4211147B
421128F6
42113D71
421151EC
42116666
42117AE1
42118F5C
4211A3D7
4211B852
4211CCCD
4211E148
4211F5C3
42120A3D
42121EB8
42123333
421247AE
42125C29
421270A4
4212851F
4212999A
4212AE14
4212C28F
4212D70A
4212EB85
42130000
4213147B
421328F6
42133D71
421351EC
42136666
42137AE1
42138F5C
4213A3D7
4213B852
4213CCCD
4213E148
4213F5C3
42140A3D
42141EB8
42143333
421447AE
42145C29
421470A4
4214851F
4214999A
4214AE14
4214C28F
4214D70A
4214EB85
42150000
4215147B
421528F6
42153D71
421551EC
42156666
42157AE1
42158F5C
4215A3D7
4215B852
4215CCCD
4215E148
4215F5C3
42160A3D
42161EB8
42163333
421647AE
42165C29
421670A4
4216851F
4216999A
4216AE14
4216C28F
4216D70A
4216EB85
42170000
4217147B
421728F6
42173D71
421751EC
42176666
42177AE1
42178F5C
4217A3D7
4217B852
4217CCCD
4217E148
4217F5C3
42180A3D
42181EB8
42183333
421847AE
42185C29
421870A4
4218851F
4218999A
4218AE14
4218C28F
4218D70A
4218EB85
42190000
4219147B
421928F6
42193D71
421951EC
42196666
42197AE1
42198F5C
4219A3D7
4219B852
4219CCCD
4219E148
4219F5C3
421A0A3D
421A1EB8
421A3333
421A47AE
421A5C29
421A70A4
421A851F
421A999A
421AAE14
421AC28F
421AD70A
421AEB85
421B0000
421B147B
421B28F6
421B3D71
421B51EC
421B6666
421B7AE1
421B8F5C
421BA3D7
421BB852
421BCCCD
421BE148
421BF5C3
421C0A3D
421C1EB8
421C3333
421C47AE
421C5C29
421C70A4
421C851F
421C999A
421CAE14
421CC28F
421CD70A
421CEB85
421D0000
421D147B
421D28F6
421D3D71
421D51EC
421D6666
421D7AE1
421D8F5C
421DA3D7
421DB852
421DCCCD
421DE148
421DF5C3
421E0A3D
421E1EB8
421E3333
421E47AE
421E5C29
421E70A4
421E851F
421E999A
421EAE14
421EC28F
421ED70A
421EEB85
421F0000
421F147B
421F28F6
421F3D71
421F51EC
421F6666
421F7AE1
421F8F5C
421FA3D7
421FB852
421FCCCD
421FE148
421FF5C3
42200A3D
42201EB8
42203333
422047AE
42205C29
422070A4
4220851F
4220999A
4220AE14
4220C28F
4220D70A
4220EB85
42210000
4221147B
422128F6
42213D71
422151EC
42216666
42217AE1
42218F5C
4221A3D7
4221B852
4221CCCD
4221E148
4221F5C3
42220A3D
42221EB8
42223333
422247AE
42225C29
422270A4
4222851F
4222999A
4222AE14
4222C28F
4222D70A
4222EB85
42230000
4223147B
422328F6
42233D71
422351EC
42236666
42237AE1
42238F5C
4223A3D7
4223B852
4223CCCD
4223E148
4223F5C3
42240A3D
42241EB8
42243333
422447AE
42245C29
422470A4
4224851F
4224999A
4224AE14
4224C28F
4224D70A
4224EB85
42250000
4225147B
422528F6
42253D71
422551EC
42256666
42257AE1
42258F5C
4225A3D7
4225B852
4225CCCD
4225E148
4225F5C3
42260A3D
42261EB8
42263333
422647AE
42265C29
422670A4
4226851F
4226999A
4226AE14
4226C28F
4226D70A
4226EB85
42270000
4227147B
422728F6
42273D71
422751EC
42276666
42277AE1
42278F5C
4227A3D7
4227B852
4227CCCD
4227E148
4227F5C3
42280A3D
42281EB8
42283333
422847AE
42285C29
422870A4
4228851F
4228999A
4228AE14
4228C28F
4228D70A
4228EB85
42290000
4229147B
422928F6
42293D71
422951EC
42296666
42297AE1
42298F5C
4229A3D7
4229B852
4229CCCD
4229E148
4229F5C3
422A0A3D
422A1EB8
422A3333
422A47AE
422A5C29
422A70A4
422A851F
422A999A
422AAE14
422AC28F
422AD70A
422AEB85
422B0000
422B147B
422B28F6
422B3D71
422B51EC
422B6666
422B7AE1
422B8F5C
422BA3D7
422BB852
422BCCCD
422BE148
422BF5C3
422C0A3D
422C1EB8
422C3333
422C47AE
422C5C29
422C70A4
422C851F
422C999A
422CAE14
422CC28F
422CD70A
422CEB85
422D0000
422D147B
422D28F6
422D3D71
422D51EC
422D6666
422D7AE1
422D8F5C
422DA3D7
422DB852
422DCCCD
422DE148
422DF5C3
422E0A3D
422E1EB8
422E3333
422E47AE
422E5C29
422E70A4
422E851F
422E999A
422EAE14
422EC28F
422ED70A
422EEB85
422F0000
422F147B
422F28F6
422F3D71
422F51EC
422F6666
422F7AE1
422F8F5C
422FA3D7
422FB852
422FCCCD
422FE148
422FF5C3
42300A3D
42301EB8
42303333
423047AE
42305C29
423070A4
4230851F
4230999A
4230AE14
4230C28F
4230D70A
4230EB85
42310000
4231147B
423128F6
42313D71
423151EC
42316666
42317AE1
42318F5C
4231A3D7
4231B852
4231CCCD
4231E148
4231F5C3
42320A3D
42321EB8
42323333
423247AE
42325C29
423270A4
4232851F
4232999A
4232AE14
4232C28F
4232D70A
4232EB85
42330000
4233147B
423328F6
42333D71
423351EC
42336666
42337AE1
42338F5C
4233A3D7
4233B852
4233CCCD
4233E148
4233F5C3
42340A3D
42341EB8
42343333
423447AE
42345C29
423470A4
4234851F
4234999A
4234AE14
4234C28F
4234D70A
4234EB85
42350000
4235147B
423528F6
42353D71
423551EC
42356666
42357AE1
42358F5C
4235A3D7
4235B852
4235CCCD
4235E148
4235F5C3
42360A3D
42361EB8
42363333
423647AE
42365C29
423670A4
4236851F
4236999A
4236AE14
4236C28F
4236D70A
4236EB85
42370000
4237147B
423728F6
42373D71
423751EC
42376666
42377AE1
42378F5C
4237A3D7
4237B852
4237CCCD
4237E148
4237F5C3
42380A3D
42381EB8
42383333
423847AE
