3fb8f5c3
3fbb851f
3fbe147b
3fc0a3d7
3fc33333
3fc5c28f
3fc851ec
3fcae148
3fcd70a4
3fd00000
3fd28f5c
3fd51eb8
3fd7ae14
3fda3d71
3fdccccd
3fdf5c29
3fe1eb85
3fe47ae1
3fe70a3d
3fe9999a
3fec28f6
3feeb852
3ff147ae
3ff3d70a
3ff66666
3ff8f5c3
3ffb851f
3ffe147b
400051ec
4001999a
4002e148
400428f6
400570a4
4006b852
40080000
400947ae
400a8f5c
400bd70a
400d1eb8
400e6666
400fae14
4010f5c3
40123d71
4013851f
4014cccd
4016147b
40175c29
4018a3d7
4019eb85
401b3333
401c7ae1
401dc28f
401f0a3d
402051ec
4021999a
4022e148
402428f6
402570a4
4026b852
40280000
402947ae
402a8f5c
402bd70a
402d1eb8
402e6666
402fae14
4030f5c3
40323d71
4033851f
4034cccd
4036147b
40375c29
408a6666
408b0a3d
408bae14
408c51ec
408cf5c3
408d999a
408e3d71
408ee148
408f851f
409028f6
4090cccd
409170a4
4092147b
4092b852
40935c29
40940000
4094a3d7
409547ae
4095eb85
40968f5c
40973333
4097d70a
40987ae1
40991eb8
4099c28f
409a6666
409b0a3d
409bae14
409c51ec
409cf5c3
409d999a
409e3d71
409ee148
409f851f
40a028f6
40a0cccd
40a170a4
40a2147b
40a2b852
40a35c29
40a40000
40a4a3d7
40a547ae
40a5eb85
40a68f5c
40a73333
40a7d70a
40a87ae1
40a91eb8
40a9c28f
40aa6666
40ab0a3d
40abae14
40ac51ec
40acf5c3
40ad999a
40ae3d71
40aee148
40af851f
40b028f6
40b0cccd
40b170a4
40b2147b
40b2b852
40b35c29
40b40000
40b4a3d7
40b547ae
40b5eb85
40b68f5c
40b73333
40b7d70a
40e68f5c
40e73333
40e7d70a
40e87ae1
40e91eb8
40e9c28f
40ea6666
40eb0a3d
40ebae14
40ec51ec
40ecf5c3
40ed999a
40ee3d71
40eee148
40ef851f
40f028f6
40f0cccd
40f170a4
40f2147b
40f2b852
40f35c29
40f40000
40f4a3d7
40f547ae
40f5eb85
40f68f5c
40f73333
40f7d70a
40f87ae1
40f91eb8
40f9c28f
40fa6666
40fb0a3d
40fbae14
40fc51ec
40fcf5c3
40fd999a
40fe3d71
40fee148
40ff851f
4100147b
41006666
4100b852
41010a3d
41015c29
4101ae14
41020000
410251ec
4102a3d7
4102f5c3
410347ae
4103999a
4103eb85
41043d71
41048f5c
4104e148
41053333
4105851f
4105d70a
410628f6
41067ae1
4106cccd
41071eb8
410770a4
4107c28f
4108147b
41086666
4108b852
41090a3d
41095c29
4109ae14
410a0000
41215c29
4121ae14
41220000
412251ec
4122a3d7
4122f5c3
412347ae
4123999a
4123eb85
41243d71
41248f5c
4124e148
41253333
4125851f
4125d70a
412628f6
41267ae1
4126cccd
41271eb8
412770a4
4127c28f
4128147b
41286666
4128b852
41290a3d
41295c29
4129ae14
412a0000
412a51ec
412aa3d7
412af5c3
412b47ae
412b999a
412beb85
412c3d71
412c8f5c
412ce148
412d3333
412d851f
412dd70a
412e28f6
412e7ae1
412ecccd
412f1eb8
412f70a4
412fc28f
4130147b
41306666
4130b852
41310a3d
41315c29
4131ae14
41320000
413251ec
4132a3d7
4132f5c3
413347ae
4133999a
4133eb85
41343d71
41348f5c
4134e148
41353333
4135851f
4135d70a
413628f6
41367ae1
4136cccd
41371eb8
413770a4
4137c28f
4138147b
414f70a4
414fc28f
4150147b
41506666
4150b852
41510a3d
41515c29
4151ae14
41520000
415251ec
4152a3d7
4152f5c3
415347ae
4153999a
4153eb85
41543d71
41548f5c
4154e148
41553333
4155851f
4155d70a
415628f6
41567ae1
4156cccd
41571eb8
415770a4
4157c28f
4158147b
41586666
4158b852
41590a3d
41595c29
4159ae14
415a0000
415a51ec
415aa3d7
415af5c3
415b47ae
415b999a
415beb85
415c3d71
415c8f5c
415ce148
415d3333
415d851f
415dd70a
415e28f6
415e7ae1
415ecccd
415f1eb8
415f70a4
415fc28f
4160147b
41606666
4160b852
41610a3d
41615c29
4161ae14
41620000
416251ec
4162a3d7
4162f5c3
416347ae
4163999a
4163eb85
41643d71
41648f5c
4164e148
41653333
4165851f
4165d70a
416628f6
417d851f
417dd70a
417e28f6
417e7ae1
417ecccd
417f1eb8
417f70a4
417fc28f
41800a3d
41803333
41805c29
4180851f
4180ae14
4180d70a
41810000
418128f6
418151ec
41817ae1
4181a3d7
4181cccd
4181f5c3
41821eb8
418247ae
418270a4
4182999a
4182c28f
4182eb85
4183147b
41833d71
41836666
41838f5c
4183b852
4183e148
41840a3d
41843333
41845c29
4184851f
4184ae14
4184d70a
41850000
418528f6
418551ec
41857ae1
4185a3d7
4185cccd
4185f5c3
41861eb8
418647ae
418670a4
4186999a
4186c28f
4186eb85
4187147b
41873d71
41876666
41878f5c
4187b852
4187e148
41880a3d
41883333
41885c29
4188851f
4188ae14
4188d70a
41890000
418928f6
418951ec
41897ae1
4189a3d7
4189cccd
4189f5c3
418a1eb8
4195cccd
4195f5c3
41961eb8
419647ae
419670a4
4196999a
4196c28f
4196eb85
4197147b
41973d71
41976666
41978f5c
4197b852
4197e148
41980a3d
41983333
41985c29
4198851f
4198ae14
4198d70a
41990000
419928f6
419951ec
41997ae1
4199a3d7
4199cccd
4199f5c3
419a1eb8
419a47ae
419a70a4
419a999a
419ac28f
419aeb85
419b147b
419b3d71
419b6666
419b8f5c
419bb852
419be148
419c0a3d
419c3333
419c5c29
419c851f
419cae14
419cd70a
419d0000
419d28f6
419d51ec
419d7ae1
419da3d7
419dcccd
419df5c3
419e1eb8
419e47ae
419e70a4
419e999a
419ec28f
419eeb85
419f147b
419f3d71
419f6666
419f8f5c
419fb852
419fe148
41a00a3d
41a03333
41a05c29
41a0851f
41a0ae14
41a0d70a
41a10000
41a128f6
41acd70a
41ad0000
41ad28f6
41ad51ec
41ad7ae1
41ada3d7
41adcccd
41adf5c3
41ae1eb8
41ae47ae
41ae70a4
41ae999a
41aec28f
41aeeb85
41af147b
41af3d71
41af6666
41af8f5c
41afb852
41afe148
41b00a3d
41b03333
41b05c29
41b0851f
41b0ae14
41b0d70a
41b10000
41b128f6
41b151ec
41b17ae1
41b1a3d7
41b1cccd
41b1f5c3
41b21eb8
41b247ae
41b270a4
41b2999a
41b2c28f
41b2eb85
41b3147b
41b33d71
41b36666
41b38f5c
41b3b852
41b3e148
41b40a3d
41b43333
41b45c29
41b4851f
41b4ae14
41b4d70a
41b50000
41b528f6
41b551ec
41b57ae1
41b5a3d7
41b5cccd
41b5f5c3
41b61eb8
41b647ae
41b670a4
41b6999a
41b6c28f
41b6eb85
41b7147b
41b73d71
41b76666
41b78f5c
41b7b852
41b7e148
41b80a3d
41b83333
