3FB9999A
3FBC28F6
3FBEB852
3FC147AE
3FC3D70A
3FC66666
3FC8F5C3
3FCB851F
3FCE147B
3FD0A3D7
3FD33333
3FD5C28F
3FD851EC
3FDAE148
3FDD70A4
3FE00000
3FE28F5C
3FE51EB8
3FE7AE14
3FEA3D71
3FECCCCD
3FEF5C29
3FF1EB85
3FF47AE1
3FF70A3D
3FF9999A
3FFC28F6
3FFEB852
4000A3D7
4001EB85
40033333
40047AE1
4005C28F
40070A3D
400851EC
4009999A
400AE148
400C28F6
400D70A4
400EB852
40100000
401147AE
40128F5C
4013D70A
40151EB8
40166666
4017AE14
4018F5C3
401A3D71
401B851F
401CCCCD
401E147B
401F5C29
4020A3D7
4021EB85
40233333
40247AE1
4025C28F
40270A3D
402851EC
4029999A
402AE148
402C28F6
402D70A4
402EB852
40300000
403147AE
40328F5C
4033D70A
40351EB8
40366666
4037AE14
408A8F5C
408B3333
408BD70A
408C7AE1
408D1EB8
408DC28F
408E6666
408F0A3D
408FAE14
409051EC
4090F5C3
4091999A
40923D71
4092E148
4093851F
409428F6
4094CCCD
409570A4
4096147B
4096B852
40975C29
40980000
4098A3D7
409947AE
4099EB85
409A8F5C
409B3333
409BD70A
409C7AE1
409D1EB8
409DC28F
409E6666
409F0A3D
409FAE14
40A051EC
40A0F5C3
40A1999A
40A23D71
40A2E148
40A3851F
40A428F6
40A4CCCD
40A570A4
40A6147B
40A6B852
40A75C29
40A80000
40A8A3D7
40A947AE
40A9EB85
40AA8F5C
40AB3333
40ABD70A
40AC7AE1
40AD1EB8
40ADC28F
40AE6666
40AF0A3D
40AFAE14
40B051EC
40B0F5C3
40B1999A
40B23D71
40B2E148
40B3851F
40B428F6
40B4CCCD
40B570A4
40B6147B
40B6B852
40B75C29
40B80000
40E6B852
40E75C29
40E80000
40E8A3D7
40E947AE
40E9EB85
40EA8F5C
40EB3333
40EBD70A
40EC7AE1
40ED1EB8
40EDC28F
40EE6666
40EF0A3D
40EFAE14
40F051EC
40F0F5C3
40F1999A
40F23D71
40F2E148
40F3851F
40F428F6
40F4CCCD
40F570A4
40F6147B
40F6B852
40F75C29
40F80000
40F8A3D7
40F947AE
40F9EB85
40FA8F5C
40FB3333
40FBD70A
40FC7AE1
40FD1EB8
40FDC28F
40FE6666
40FF0A3D
40FFAE14
410028F6
41007AE1
4100CCCD
41011EB8
410170A4
4101C28F
4102147B
41026666
4102B852
41030A3D
41035C29
4103AE14
41040000
410451EC
4104A3D7
4104F5C3
410547AE
4105999A
4105EB85
41063D71
41068F5C
4106E148
41073333
4107851F
4107D70A
410828F6
41087AE1
4108CCCD
41091EB8
410970A4
4109C28F
410A147B
412170A4
4121C28F
4122147B
41226666
4122B852
41230A3D
41235C29
4123AE14
41240000
412451EC
4124A3D7
4124F5C3
412547AE
4125999A
4125EB85
41263D71
41268F5C
4126E148
41273333
4127851F
4127D70A
412828F6
41287AE1
4128CCCD
41291EB8
412970A4
4129C28F
412A147B
412A6666
412AB852
412B0A3D
412B5C29
412BAE14
412C0000
412C51EC
412CA3D7
412CF5C3
412D47AE
412D999A
412DEB85
412E3D71
412E8F5C
412EE148
412F3333
412F851F
412FD70A
413028F6
41307AE1
4130CCCD
41311EB8
413170A4
4131C28F
4132147B
41326666
4132B852
41330A3D
41335C29
4133AE14
41340000
413451EC
4134A3D7
4134F5C3
413547AE
4135999A
4135EB85
41363D71
41368F5C
4136E148
41373333
4137851F
4137D70A
413828F6
414F851F
414FD70A
415028F6
41507AE1
4150CCCD
41511EB8
415170A4
4151C28F
4152147B
41526666
4152B852
41530A3D
41535C29
4153AE14
41540000
415451EC
4154A3D7
4154F5C3
415547AE
4155999A
4155EB85
41563D71
41568F5C
4156E148
41573333
4157851F
4157D70A
415828F6
41587AE1
4158CCCD
41591EB8
415970A4
4159C28F
415A147B
415A6666
415AB852
415B0A3D
415B5C29
415BAE14
415C0000
415C51EC
415CA3D7
415CF5C3
415D47AE
415D999A
415DEB85
415E3D71
415E8F5C
415EE148
415F3333
415F851F
415FD70A
416028F6
41607AE1
4160CCCD
41611EB8
416170A4
4161C28F
4162147B
41626666
4162B852
41630A3D
41635C29
4163AE14
41640000
416451EC
4164A3D7
4164F5C3
416547AE
4165999A
4165EB85
41663D71
417D999A
417DEB85
417E3D71
417E8F5C
417EE148
417F3333
417F851F
417FD70A
4180147B
41803D71
41806666
41808F5C
4180B852
4180E148
41810A3D
41813333
41815C29
4181851F
4181AE14
4181D70A
41820000
418228F6
418251EC
41827AE1
4182A3D7
4182CCCD
4182F5C3
41831EB8
418347AE
418370A4
4183999A
4183C28F
4183EB85
4184147B
41843D71
41846666
41848F5C
4184B852
4184E148
41850A3D
41853333
41855C29
4185851F
4185AE14
4185D70A
41860000
418628F6
418651EC
41867AE1
4186A3D7
4186CCCD
4186F5C3
41871EB8
418747AE
418770A4
4187999A
4187C28F
4187EB85
4188147B
41883D71
41886666
41888F5C
4188B852
4188E148
41890A3D
41893333
41895C29
4189851F
4189AE14
4189D70A
418A0000
418A28F6
4195D70A
41960000
419628F6
419651EC
41967AE1
4196A3D7
4196CCCD
4196F5C3
41971EB8
419747AE
419770A4
4197999A
4197C28F
4197EB85
4198147B
41983D71
41986666
41988F5C
4198B852
4198E148
41990A3D
41993333
41995C29
4199851F
4199AE14
4199D70A
419A0000
419A28F6
419A51EC
419A7AE1
419AA3D7
419ACCCD
419AF5C3
419B1EB8
419B47AE
419B70A4
419B999A
419BC28F
419BEB85
419C147B
419C3D71
419C6666
419C8F5C
419CB852
419CE148
419D0A3D
419D3333
419D5C29
419D851F
419DAE14
419DD70A
419E0000
419E28F6
419E51EC
419E7AE1
419EA3D7
419ECCCD
419EF5C3
419F1EB8
419F47AE
419F70A4
419F999A
419FC28F
419FEB85
41A0147B
41A03D71
41A06666
41A08F5C
41A0B852
41A0E148
41A10A3D
41A13333
41ACE148
41AD0A3D
41AD3333
41AD5C29
41AD851F
41ADAE14
41ADD70A
41AE0000
41AE28F6
41AE51EC
41AE7AE1
41AEA3D7
41AECCCD
41AEF5C3
41AF1EB8
41AF47AE
41AF70A4
41AF999A
41AFC28F
41AFEB85
41B0147B
41B03D71
41B06666
41B08F5C
41B0B852
41B0E148
41B10A3D
41B13333
41B15C29
41B1851F
41B1AE14
41B1D70A
41B20000
41B228F6
41B251EC
41B27AE1
41B2A3D7
41B2CCCD
41B2F5C3
41B31EB8
41B347AE
41B370A4
41B3999A
41B3C28F
41B3EB85
41B4147B
41B43D71
41B46666
41B48F5C
41B4B852
41B4E148
41B50A3D
41B53333
41B55C29
41B5851F
41B5AE14
41B5D70A
41B60000
41B628F6
41B651EC
41B67AE1
41B6A3D7
41B6CCCD
41B6F5C3
41B71EB8
41B747AE
41B770A4
41B7999A
41B7C28F
41B7EB85
41B8147B
41B83D71
